unsigned char heatsense_modelfinal_data[] = {
  0x20, 0x00, 0x00, 0x00, 0x54, 0x46, 0x4c, 0x33, 0x00, 0x00, 0x00, 0x00,
  0x14, 0x00, 0x20, 0x00, 0x1c, 0x00, 0x18, 0x00, 0x14, 0x00, 0x10, 0x00,
  0x0c, 0x00, 0x00, 0x00, 0x08, 0x00, 0x04, 0x00, 0x14, 0x00, 0x00, 0x00,
  0x1c, 0x00, 0x00, 0x00, 0x1c, 0x00, 0x00, 0x00, 0x74, 0x00, 0x00, 0x00,
  0xd8, 0x22, 0x00, 0x00, 0xe8, 0x22, 0x00, 0x00, 0xcc, 0x5d, 0x00, 0x00,
  0x03, 0x00, 0x00, 0x00, 0x00, 0x00, 0x00, 0x00, 0x02, 0x00, 0x00, 0x00,
  0x34, 0x00, 0x00, 0x00, 0x04, 0x00, 0x00, 0x00, 0xdc, 0xff, 0xff, 0xff,
  0x2f, 0x00, 0x00, 0x00, 0x04, 0x00, 0x00, 0x00, 0x13, 0x00, 0x00, 0x00,
  0x43, 0x4f, 0x4e, 0x56, 0x45, 0x52, 0x53, 0x49, 0x4f, 0x4e, 0x5f, 0x4d,
  0x45, 0x54, 0x41, 0x44, 0x41, 0x54, 0x41, 0x00, 0x08, 0x00, 0x0c, 0x00,
  0x08, 0x00, 0x04, 0x00, 0x08, 0x00, 0x00, 0x00, 0x2e, 0x00, 0x00, 0x00,
  0x04, 0x00, 0x00, 0x00, 0x13, 0x00, 0x00, 0x00, 0x6d, 0x69, 0x6e, 0x5f,
  0x72, 0x75, 0x6e, 0x74, 0x69, 0x6d, 0x65, 0x5f, 0x76, 0x65, 0x72, 0x73,
  0x69, 0x6f, 0x6e, 0x00, 0x30, 0x00, 0x00, 0x00, 0x60, 0x22, 0x00, 0x00,
  0x58, 0x22, 0x00, 0x00, 0x30, 0x22, 0x00, 0x00, 0x08, 0x22, 0x00, 0x00,
  0xec, 0x21, 0x00, 0x00, 0xc4, 0x21, 0x00, 0x00, 0xa4, 0x21, 0x00, 0x00,
  0x88, 0x21, 0x00, 0x00, 0x74, 0x21, 0x00, 0x00, 0x5c, 0x21, 0x00, 0x00,
  0x0c, 0x21, 0x00, 0x00, 0x7c, 0x20, 0x00, 0x00, 0x6c, 0x18, 0x00, 0x00,
  0x1c, 0x18, 0x00, 0x00, 0xcc, 0x17, 0x00, 0x00, 0xbc, 0x16, 0x00, 0x00,
  0xac, 0x0e, 0x00, 0x00, 0x1c, 0x0e, 0x00, 0x00, 0xac, 0x0d, 0x00, 0x00,
  0x9c, 0x0c, 0x00, 0x00, 0x8c, 0x04, 0x00, 0x00, 0x5c, 0x04, 0x00, 0x00,
  0x2c, 0x04, 0x00, 0x00, 0x9c, 0x03, 0x00, 0x00, 0xcc, 0x01, 0x00, 0x00,
  0x84, 0x01, 0x00, 0x00, 0x2c, 0x01, 0x00, 0x00, 0x24, 0x01, 0x00, 0x00,
  0x1c, 0x01, 0x00, 0x00, 0x14, 0x01, 0x00, 0x00, 0x0c, 0x01, 0x00, 0x00,
  0x04, 0x01, 0x00, 0x00, 0xfc, 0x00, 0x00, 0x00, 0xf4, 0x00, 0x00, 0x00,
  0xec, 0x00, 0x00, 0x00, 0xe4, 0x00, 0x00, 0x00, 0xdc, 0x00, 0x00, 0x00,
  0xd4, 0x00, 0x00, 0x00, 0xcc, 0x00, 0x00, 0x00, 0xc4, 0x00, 0x00, 0x00,
  0xbc, 0x00, 0x00, 0x00, 0xb4, 0x00, 0x00, 0x00, 0xac, 0x00, 0x00, 0x00,
  0xa4, 0x00, 0x00, 0x00, 0x9c, 0x00, 0x00, 0x00, 0x94, 0x00, 0x00, 0x00,
  0x74, 0x00, 0x00, 0x00, 0x04, 0x00, 0x00, 0x00, 0x8e, 0xde, 0xff, 0xff,
  0x04, 0x00, 0x00, 0x00, 0x60, 0x00, 0x00, 0x00, 0x0c, 0x00, 0x00, 0x00,
  0x08, 0x00, 0x0e, 0x00, 0x08, 0x00, 0x04, 0x00, 0x08, 0x00, 0x00, 0x00,
  0x10, 0x00, 0x00, 0x00, 0x28, 0x00, 0x00, 0x00, 0x00, 0x00, 0x06, 0x00,
  0x08, 0x00, 0x04, 0x00, 0x06, 0x00, 0x00, 0x00, 0x04, 0x00, 0x00, 0x00,
  0x01, 0x00, 0x00, 0x00, 0xeb, 0x03, 0x00, 0x00, 0x0c, 0x00, 0x18, 0x00,
  0x14, 0x00, 0x10, 0x00, 0x0c, 0x00, 0x04, 0x00, 0x0c, 0x00, 0x00, 0x00,
  0x11, 0xb8, 0xa2, 0x31, 0xba, 0x8b, 0x8a, 0x82, 0x03, 0x00, 0x00, 0x00,
  0x02, 0x00, 0x00, 0x00, 0x04, 0x00, 0x00, 0x00, 0x06, 0x00, 0x00, 0x00,
  0x32, 0x2e, 0x32, 0x30, 0x2e, 0x30, 0x00, 0x00, 0xfa, 0xde, 0xff, 0xff,
  0x04, 0x00, 0x00, 0x00, 0x10, 0x00, 0x00, 0x00, 0x31, 0x2e, 0x31, 0x34,
  0x2e, 0x30, 0x00, 0x00, 0x00, 0x00, 0x00, 0x00, 0x00, 0x00, 0x00, 0x00,
  0x8c, 0xa4, 0xff, 0xff, 0x90, 0xa4, 0xff, 0xff, 0x94, 0xa4, 0xff, 0xff,
  0x98, 0xa4, 0xff, 0xff, 0x9c, 0xa4, 0xff, 0xff, 0xa0, 0xa4, 0xff, 0xff,
  0xa4, 0xa4, 0xff, 0xff, 0xa8, 0xa4, 0xff, 0xff, 0xac, 0xa4, 0xff, 0xff,
  0xb0, 0xa4, 0xff, 0xff, 0xb4, 0xa4, 0xff, 0xff, 0xb8, 0xa4, 0xff, 0xff,
  0xbc, 0xa4, 0xff, 0xff, 0xc0, 0xa4, 0xff, 0xff, 0xc4, 0xa4, 0xff, 0xff,
  0xc8, 0xa4, 0xff, 0xff, 0xcc, 0xa4, 0xff, 0xff, 0xd0, 0xa4, 0xff, 0xff,
  0xd4, 0xa4, 0xff, 0xff, 0x62, 0xdf, 0xff, 0xff, 0x04, 0x00, 0x00, 0x00,
  0x46, 0x00, 0x00, 0x00, 0x7f, 0x37, 0xd2, 0x7c, 0x81, 0x01, 0x6b, 0x86,
  0xdf, 0x1e, 0xa2, 0xee, 0x7f, 0x0b, 0x1b, 0x4e, 0x82, 0xb5, 0xff, 0x81,
  0x81, 0x6a, 0x7f, 0x9c, 0x5e, 0x81, 0xff, 0x24, 0x26, 0x81, 0xb7, 0x79,
  0x90, 0xea, 0xc7, 0x81, 0x63, 0x81, 0x2c, 0x3c, 0x90, 0x07, 0xe4, 0xb6,
  0x78, 0xe2, 0xfc, 0xc7, 0x9d, 0x5a, 0x57, 0x01, 0x81, 0x83, 0x65, 0x7f,
  0xf1, 0x8e, 0x81, 0x81, 0x1b, 0x69, 0xe0, 0x7c, 0x1a, 0x6f, 0xcc, 0xf4,
  0x77, 0x5f, 0x00, 0x00, 0xb6, 0xdf, 0xff, 0xff, 0x04, 0x00, 0x00, 0x00,
  0x38, 0x00, 0x00, 0x00, 0x00, 0x00, 0x00, 0x00, 0x00, 0x00, 0x00, 0x00,
  0x00, 0x00, 0x00, 0x00, 0x00, 0x00, 0x00, 0x00, 0x00, 0x00, 0x00, 0x00,
  0x00, 0x00, 0x00, 0x00, 0x00, 0x00, 0x00, 0x00, 0x00, 0x00, 0x00, 0x00,
  0x00, 0x00, 0x00, 0x00, 0x00, 0x00, 0x00, 0x00, 0x00, 0x00, 0x00, 0x00,
  0x00, 0x00, 0x00, 0x00, 0x00, 0x00, 0x00, 0x00, 0x00, 0x00, 0x00, 0x00,
  0xfa, 0xdf, 0xff, 0xff, 0x04, 0x00, 0x00, 0x00, 0xc0, 0x01, 0x00, 0x00,
  0x7f, 0x34, 0xfd, 0x12, 0xd0, 0xa5, 0x96, 0xcc, 0x74, 0x1b, 0xf5, 0xee,
  0x36, 0xe9, 0x1c, 0x48, 0x46, 0xee, 0xdd, 0x1c, 0x03, 0xa7, 0x85, 0x95,
  0xd2, 0x1a, 0x7f, 0x91, 0x57, 0x88, 0xea, 0x73, 0xc7, 0xcf, 0x81, 0x90,
  0xf9, 0xa4, 0xbf, 0x9b, 0xc3, 0x87, 0x59, 0x9d, 0xe2, 0x0b, 0x1e, 0x08,
  0x49, 0x27, 0x04, 0x5d, 0x81, 0xe9, 0x24, 0x1e, 0x24, 0x81, 0x32, 0x57,
  0x03, 0x56, 0x28, 0xf2, 0xc1, 0x35, 0x14, 0x28, 0x63, 0x3d, 0xa4, 0xa4,
  0xc9, 0x9f, 0x3a, 0x12, 0x06, 0x0d, 0x2a, 0xe0, 0x40, 0x7f, 0xd8, 0xf1,
  0x2e, 0x89, 0x7f, 0xf9, 0x21, 0x8d, 0xa1, 0x1c, 0xc3, 0x12, 0xab, 0xe9,
  0xa4, 0x48, 0xec, 0xa4, 0x2c, 0xa1, 0xc7, 0x60, 0x6e, 0x7f, 0x32, 0x89,
  0x83, 0x4f, 0x44, 0x95, 0xbb, 0xd8, 0xa4, 0x5e, 0x88, 0x20, 0x0e, 0xf8,
  0xed, 0xaa, 0x1b, 0xff, 0xf2, 0x7f, 0xff, 0x7f, 0xef, 0xd9, 0x88, 0x2f,
  0x1a, 0x74, 0x63, 0xcb, 0x49, 0x68, 0x58, 0x33, 0xeb, 0x09, 0x36, 0x87,
  0x99, 0x58, 0x1c, 0xc9, 0x8a, 0x2d, 0x7f, 0x36, 0x2d, 0xe3, 0x2c, 0x21,
  0x39, 0xd6, 0xf0, 0x1e, 0xfb, 0x7f, 0xea, 0xeb, 0x23, 0x25, 0xf1, 0x1c,
  0x24, 0x10, 0x5a, 0x73, 0xf4, 0x35, 0x2f, 0xa2, 0x66, 0x7f, 0x19, 0x73,
  0xb9, 0xd9, 0x20, 0x7f, 0xce, 0xbd, 0x6c, 0x85, 0xa0, 0x0b, 0xbf, 0x8f,
  0xe5, 0xe1, 0x1c, 0x26, 0x00, 0x81, 0xff, 0xa8, 0xdd, 0x22, 0xe2, 0xf9,
  0xee, 0x3b, 0x07, 0x03, 0x2d, 0x36, 0x91, 0xd6, 0xab, 0xe5, 0xe6, 0x16,
  0xb1, 0x81, 0x39, 0xf7, 0xf9, 0xf4, 0xd9, 0xf5, 0x53, 0xb8, 0x37, 0x15,
  0xb9, 0x04, 0x21, 0x2a, 0x81, 0x30, 0xf5, 0x70, 0xfc, 0xd5, 0x51, 0xdf,
  0xf4, 0x6a, 0xd0, 0x7f, 0xea, 0x23, 0x0c, 0xd7, 0xf7, 0x37, 0xa6, 0xc7,
  0xd4, 0x35, 0x65, 0xb1, 0xbd, 0xec, 0xa7, 0xe6, 0x7f, 0xf7, 0xdb, 0x0d,
  0x46, 0xf5, 0x03, 0x12, 0x4a, 0x2a, 0xbd, 0xb8, 0xdd, 0x7f, 0x36, 0x10,
  0xfa, 0x54, 0xcb, 0xf6, 0x53, 0x7c, 0x51, 0xbc, 0x45, 0x28, 0x20, 0x81,
  0xd5, 0xc1, 0x34, 0x05, 0x7a, 0x1b, 0x7f, 0x25, 0xcf, 0x78, 0x65, 0xeb,
  0x66, 0xf3, 0x25, 0xe3, 0xf3, 0x39, 0xbd, 0x67, 0xfd, 0x7f, 0xbf, 0xbe,
  0x45, 0x68, 0xc5, 0x67, 0x00, 0xdf, 0xba, 0x3b, 0x6a, 0x18, 0x7f, 0x3f,
  0x47, 0xde, 0xb6, 0x30, 0xac, 0xab, 0xf8, 0x4d, 0xe6, 0x9a, 0x4c, 0xcb,
  0x14, 0x0e, 0x12, 0x65, 0xf7, 0x13, 0x8e, 0xa3, 0xe6, 0xac, 0x7f, 0x94,
  0xf4, 0x03, 0x7a, 0x69, 0xaf, 0xd1, 0x45, 0xdd, 0xa9, 0x8e, 0x81, 0x23,
  0x4b, 0x3e, 0x16, 0xb0, 0x13, 0x27, 0xa2, 0x1d, 0x5a, 0x00, 0x4e, 0xbb,
  0x0c, 0x0d, 0x27, 0x2d, 0x8c, 0x81, 0xd3, 0xd3, 0x26, 0xf5, 0xa8, 0x2a,
  0xa2, 0x1a, 0x01, 0x7f, 0xeb, 0x15, 0xa6, 0xe7, 0x19, 0x2a, 0xbc, 0x7f,
  0x5d, 0xd8, 0x1b, 0x76, 0x48, 0xd1, 0xc3, 0xcd, 0x9b, 0xa3, 0x2d, 0xe3,
  0x6b, 0x9e, 0xd6, 0x7f, 0xd6, 0xa0, 0x60, 0x2c, 0xad, 0x71, 0xc1, 0x59,
  0xdb, 0xf3, 0xe0, 0xff, 0x3f, 0xd0, 0xf9, 0x4d, 0xc9, 0x65, 0x30, 0x3c,
  0xc5, 0x7f, 0xf0, 0xe2, 0xb5, 0x0e, 0x40, 0x4f, 0x19, 0x66, 0xd0, 0xff,
  0x01, 0xee, 0x7f, 0xba, 0xc6, 0xe1, 0xff, 0xff, 0x04, 0x00, 0x00, 0x00,
  0x80, 0x00, 0x00, 0x00, 0xd6, 0x02, 0x00, 0x00, 0xd8, 0x00, 0x00, 0x00,
  0x66, 0x08, 0x00, 0x00, 0xb3, 0xfa, 0xff, 0xff, 0xf2, 0xfc, 0xff, 0xff,
  0x33, 0xff, 0xff, 0xff, 0x38, 0xff, 0xff, 0xff, 0xbd, 0x06, 0x00, 0x00,
  0xde, 0x00, 0x00, 0x00, 0xe5, 0xf7, 0xff, 0xff, 0xf4, 0xfe, 0xff, 0xff,
  0x71, 0xfb, 0xff, 0xff, 0x75, 0xfe, 0xff, 0xff, 0xb0, 0xfe, 0xff, 0xff,
  0xe2, 0xfe, 0xff, 0xff, 0x6a, 0xfb, 0xff, 0xff, 0xf6, 0x05, 0x00, 0x00,
  0x95, 0xfe, 0xff, 0xff, 0x94, 0xfb, 0xff, 0xff, 0x5a, 0xfa, 0xff, 0xff,
  0x95, 0x01, 0x00, 0x00, 0xc8, 0x07, 0x00, 0x00, 0x93, 0xfd, 0xff, 0xff,
  0x37, 0x02, 0x00, 0x00, 0xfe, 0x02, 0x00, 0x00, 0x2e, 0x06, 0x00, 0x00,
  0x56, 0x02, 0x00, 0x00, 0x08, 0xfc, 0xff, 0xff, 0x6f, 0xfb, 0xff, 0xff,
  0x17, 0x00, 0x00, 0x00, 0xf3, 0xfe, 0xff, 0xff, 0x4d, 0xfe, 0xff, 0xff,
  0x52, 0xe2, 0xff, 0xff, 0x04, 0x00, 0x00, 0x00, 0x20, 0x00, 0x00, 0x00,
  0xb8, 0x01, 0xc7, 0xca, 0xdc, 0x25, 0xcc, 0xe7, 0xdf, 0x0a, 0xfc, 0x7f,
  0xf9, 0xf0, 0xe0, 0x38, 0xed, 0x1d, 0xee, 0xea, 0xee, 0xe0, 0xe3, 0xc2,
  0x07, 0xd5, 0xf1, 0x10, 0xda, 0xe1, 0x0e, 0xcb, 0x7e, 0xe2, 0xff, 0xff,
  0x04, 0x00, 0x00, 0x00, 0x20, 0x00, 0x00, 0x00, 0x8c, 0xfc, 0x8b, 0xe5,
  0xd3, 0xd3, 0xcf, 0x80, 0xff, 0x24, 0x18, 0x13, 0x09, 0xe3, 0x95, 0x01,
  0xc0, 0x09, 0xca, 0x07, 0xdd, 0xbb, 0xcc, 0xad, 0xcc, 0xfb, 0x0d, 0x22,
  0x0c, 0x98, 0x0a, 0xd6, 0xaa, 0xe2, 0xff, 0xff, 0x04, 0x00, 0x00, 0x00,
  0x00, 0x08, 0x00, 0x00, 0x69, 0x33, 0xf6, 0x22, 0x10, 0xda, 0x23, 0xe6,
  0xd2, 0xec, 0xa1, 0x1e, 0x04, 0x21, 0x5e, 0xf5, 0x48, 0x97, 0x09, 0xe5,
  0x81, 0x44, 0xfc, 0x20, 0xaf, 0x41, 0x5a, 0x4b, 0x3e, 0xe3, 0x2e, 0x4e,
  0xb5, 0x66, 0x18, 0x04, 0x6c, 0x3f, 0xa5, 0xe0, 0x70, 0xd6, 0x69, 0xa7,
  0x43, 0x9f, 0xd5, 0x24, 0x1d, 0xaf, 0xae, 0x2d, 0x5b, 0x5b, 0xc1, 0x42,
  0x81, 0x22, 0x75, 0x12, 0x4b, 0x58, 0xdc, 0x43, 0x54, 0xc8, 0xc1, 0x25,
  0xac, 0xb5, 0xca, 0x22, 0x10, 0x2e, 0xb6, 0x81, 0x10, 0xb2, 0x17, 0xb4,
  0xdb, 0x44, 0x17, 0x8f, 0xbc, 0x45, 0xa0, 0x52, 0xc3, 0xa8, 0xd7, 0xda,
  0x10, 0x28, 0x22, 0xae, 0xb7, 0x3d, 0x74, 0x04, 0xf7, 0x7f, 0xee, 0xed,
  0x5b, 0x14, 0x01, 0x41, 0x5d, 0x4f, 0x6e, 0x0c, 0xbe, 0xec, 0xe7, 0x4a,
  0xe7, 0xdc, 0xd5, 0xa6, 0x73, 0x18, 0xb8, 0x30, 0xc2, 0xa1, 0x1d, 0x66,
  0x5a, 0x57, 0xc6, 0x10, 0x05, 0x63, 0xf0, 0x3c, 0xce, 0xe9, 0x68, 0xf2,
  0x45, 0x26, 0x22, 0x1e, 0x60, 0xd5, 0x6c, 0x32, 0x9c, 0xfa, 0x2c, 0x32,
  0xe6, 0xe6, 0x7f, 0x3e, 0x64, 0x9c, 0x26, 0x5e, 0xb6, 0xcb, 0x36, 0xa9,
  0x1e, 0x48, 0x22, 0x2c, 0x4a, 0x16, 0x07, 0xc2, 0x3c, 0x93, 0xbd, 0x0d,
  0x33, 0x06, 0xac, 0xca, 0x81, 0x78, 0x2f, 0x5d, 0xb7, 0x64, 0xf3, 0xf9,
  0x4c, 0x47, 0x25, 0xff, 0xb9, 0xd5, 0x8f, 0xa2, 0x2d, 0x30, 0xce, 0x93,
  0x8d, 0x54, 0xaa, 0x2e, 0x1c, 0x05, 0xf0, 0xab, 0xc6, 0xfb, 0xb3, 0x00,
  0xe7, 0x96, 0x5a, 0x02, 0x03, 0xa8, 0x81, 0xf7, 0xea, 0xc3, 0x52, 0xdb,
  0x8f, 0xbb, 0x04, 0xc9, 0xee, 0xab, 0x65, 0x63, 0xc8, 0x5c, 0x0c, 0x8f,
  0xc6, 0x24, 0xe8, 0x81, 0xa2, 0xcb, 0x02, 0x03, 0x9c, 0x9b, 0xd0, 0xe1,
  0x91, 0x5a, 0x4d, 0xbc, 0x24, 0x4a, 0xb2, 0x59, 0x4e, 0x28, 0xff, 0x5b,
  0x47, 0x51, 0x26, 0xd0, 0x86, 0xe9, 0x2c, 0x20, 0x32, 0x2d, 0xe8, 0x22,
  0x31, 0xba, 0x26, 0x1f, 0xe5, 0x2a, 0x12, 0x5d, 0xfd, 0x7f, 0xc3, 0xa6,
  0x26, 0x3a, 0x4f, 0x59, 0xbb, 0x0e, 0xeb, 0x3e, 0x37, 0xca, 0xdb, 0xf3,
  0xc5, 0x22, 0xe5, 0x35, 0xc9, 0x0a, 0x06, 0xec, 0x72, 0xe8, 0xa5, 0xe0,
  0x81, 0x27, 0x73, 0x64, 0xbd, 0x0b, 0xc1, 0x02, 0xa8, 0x5b, 0xed, 0x21,
  0x1b, 0xe1, 0xff, 0xe8, 0x11, 0x7f, 0x08, 0x9c, 0x8f, 0xe9, 0x65, 0xce,
  0x08, 0x2c, 0x20, 0xd3, 0xcc, 0x1a, 0xe3, 0xb1, 0x5f, 0xce, 0xc1, 0x3b,
  0xd3, 0x0f, 0x46, 0xbb, 0x13, 0xe8, 0x14, 0xec, 0x4e, 0x22, 0xb7, 0xdf,
  0x07, 0x5c, 0xed, 0x61, 0x3e, 0x1f, 0xe6, 0x5e, 0xba, 0x3f, 0xc0, 0x46,
  0xb1, 0x14, 0xc2, 0x7f, 0x29, 0xfb, 0x3c, 0x74, 0xfd, 0x7a, 0x75, 0x3c,
  0xac, 0x79, 0x75, 0x4e, 0xd5, 0xd3, 0x15, 0x0c, 0x2d, 0x1a, 0x04, 0xf3,
  0x1c, 0x0f, 0xfb, 0xed, 0x70, 0x7d, 0xd5, 0xfb, 0x17, 0x55, 0xc9, 0xe0,
  0xd5, 0x9e, 0x4a, 0x3a, 0x68, 0xdf, 0x81, 0x73, 0x1c, 0x6f, 0x2d, 0x12,
  0x2a, 0xaa, 0xff, 0x99, 0xf3, 0x3f, 0xfb, 0x1d, 0x9e, 0xaf, 0xf2, 0x66,
  0xba, 0x02, 0x47, 0x3a, 0xb4, 0x2e, 0x57, 0x51, 0x81, 0x35, 0x2c, 0xbe,
  0x76, 0x88, 0xb8, 0x37, 0x90, 0xad, 0x8e, 0x2c, 0x14, 0xaa, 0x2a, 0x62,
  0xff, 0xc2, 0xc0, 0xb1, 0x0e, 0xf9, 0xec, 0xfe, 0xd6, 0x8c, 0xa3, 0x5f,
  0x93, 0x33, 0x0c, 0xdb, 0x8c, 0x03, 0x6c, 0x9a, 0x11, 0xec, 0x5b, 0x81,
  0x4a, 0x81, 0x19, 0xd9, 0xf1, 0x89, 0x7f, 0x42, 0xe5, 0xbe, 0x41, 0x66,
  0x73, 0xd4, 0x0d, 0x06, 0xa3, 0xe8, 0xcb, 0xda, 0xcd, 0xba, 0x9f, 0xa5,
  0xe1, 0x1a, 0xc7, 0x6e, 0x26, 0xc2, 0xfb, 0xa8, 0xd2, 0x39, 0x28, 0xc4,
  0x1b, 0x03, 0xbb, 0x89, 0xba, 0x52, 0x01, 0xfd, 0x82, 0x29, 0xe9, 0xf2,
  0xd0, 0xe1, 0xff, 0x81, 0xc2, 0x63, 0xc3, 0xc3, 0xbb, 0xd0, 0x53, 0x0d,
  0xcb, 0x54, 0x4f, 0xdb, 0x07, 0x2e, 0x67, 0xd9, 0xad, 0x4a, 0xea, 0x16,
  0xb7, 0xf5, 0xba, 0xd5, 0xe1, 0xe6, 0x2b, 0x7a, 0x27, 0xe4, 0xc2, 0x50,
  0xd1, 0x50, 0x52, 0x58, 0x98, 0xd3, 0x15, 0xa3, 0x3c, 0x22, 0xf2, 0x61,
  0xf5, 0x52, 0x7f, 0xcf, 0x00, 0xa4, 0xd1, 0x9a, 0x1b, 0xe3, 0x0b, 0xe0,
  0xf6, 0xb0, 0x11, 0xbf, 0x00, 0x12, 0xa5, 0x38, 0x4a, 0x78, 0x5e, 0x64,
  0x44, 0x38, 0xf8, 0x42, 0x10, 0xbd, 0xf8, 0x63, 0x59, 0x7f, 0xea, 0x71,
  0x4f, 0x94, 0x4e, 0x21, 0x81, 0x5f, 0x22, 0x04, 0xbb, 0x42, 0xcf, 0x46,
  0x14, 0x1a, 0xc3, 0xee, 0xc8, 0xc6, 0xcb, 0xe7, 0x5d, 0x6d, 0xa5, 0x49,
  0xca, 0xcd, 0x13, 0x1a, 0x3c, 0x49, 0xff, 0x08, 0xff, 0x1b, 0x2c, 0xa7,
  0x86, 0x47, 0xfc, 0xa0, 0x0c, 0x23, 0x07, 0x62, 0x0a, 0x5c, 0x9c, 0xca,
  0x12, 0xd5, 0xdf, 0xb4, 0xb5, 0x04, 0x17, 0xb4, 0xc8, 0x1e, 0x7f, 0xe0,
  0xc9, 0xba, 0x3c, 0xfa, 0x32, 0x0d, 0x5d, 0xd2, 0x2b, 0x6c, 0x48, 0xfd,
  0x5c, 0xd4, 0x48, 0x0d, 0x48, 0x12, 0xbe, 0xf3, 0x16, 0x28, 0xc2, 0xa8,
  0xea, 0xd1, 0x81, 0xf5, 0xa1, 0x2d, 0x38, 0xbf, 0x4d, 0xbc, 0xfc, 0xc2,
  0x16, 0xca, 0xf0, 0xe1, 0x4f, 0x6b, 0xcc, 0x54, 0x0c, 0x33, 0x1d, 0x06,
  0x13, 0x63, 0x4d, 0xab, 0x1e, 0xb5, 0xcd, 0xd9, 0x81, 0x3d, 0xee, 0xe5,
  0x66, 0xc4, 0xe5, 0x2c, 0xcf, 0xac, 0x2c, 0xd1, 0x92, 0x59, 0xb0, 0xfd,
  0x01, 0xea, 0x46, 0x91, 0xb9, 0xc9, 0xd0, 0x69, 0xf5, 0xfe, 0xef, 0xb9,
  0x35, 0xb9, 0x5d, 0xca, 0x13, 0xb9, 0xdc, 0xff, 0x45, 0xae, 0x0a, 0xa9,
  0xfd, 0x00, 0x81, 0xa0, 0xcf, 0xf2, 0x6e, 0xd4, 0x81, 0x04, 0x20, 0xb2,
  0xbe, 0xee, 0x60, 0xf6, 0x5d, 0x1e, 0x41, 0xbf, 0xf6, 0xf4, 0x22, 0x55,
  0x58, 0xc0, 0xa0, 0xe2, 0x90, 0x35, 0x3d, 0xf3, 0x36, 0xf0, 0xe4, 0x53,
  0xde, 0x61, 0x52, 0x51, 0x3f, 0x81, 0x4c, 0x08, 0xd0, 0x9c, 0xf6, 0x68,
  0x0a, 0x11, 0x1e, 0xad, 0xe4, 0x5f, 0x86, 0x13, 0xc1, 0x13, 0x00, 0xb6,
  0x9f, 0x40, 0x31, 0x26, 0xeb, 0xdd, 0xdb, 0x07, 0x0c, 0x5c, 0xd5, 0xba,
  0xb5, 0x53, 0x9a, 0x05, 0xd4, 0x39, 0x0d, 0x4a, 0x24, 0x00, 0x30, 0x7a,
  0x3c, 0x98, 0xdd, 0x8d, 0x81, 0x41, 0x34, 0x54, 0x3c, 0xbe, 0xa2, 0x34,
  0x91, 0x18, 0xac, 0x1a, 0xf2, 0xe6, 0xe2, 0xc6, 0xb9, 0x5c, 0x7f, 0x04,
  0x52, 0x0e, 0xd7, 0xfb, 0x29, 0xcf, 0xb1, 0xb8, 0x58, 0x2e, 0x3e, 0x0b,
  0xc3, 0xcc, 0x2a, 0x14, 0xe5, 0x10, 0x1f, 0x5f, 0x16, 0x09, 0x4d, 0x1c,
  0xf2, 0xd8, 0xd9, 0xd2, 0xef, 0xe6, 0xc3, 0xb5, 0x44, 0x81, 0x29, 0x30,
  0xab, 0x27, 0xff, 0x2a, 0xd7, 0xd7, 0x37, 0x0c, 0x3b, 0x30, 0xee, 0xd1,
  0x4c, 0x33, 0x9c, 0xbc, 0x9c, 0x41, 0xe0, 0xe7, 0x78, 0x67, 0xae, 0x10,
  0x31, 0xeb, 0x25, 0x2c, 0xb7, 0x59, 0xfe, 0x84, 0xd4, 0xd4, 0x4f, 0xa7,
  0x17, 0x3e, 0xf0, 0xdb, 0x43, 0x0a, 0x19, 0x88, 0xfd, 0x9e, 0xc7, 0x00,
  0x39, 0xb4, 0x81, 0xde, 0x11, 0x9c, 0x16, 0x4e, 0x1e, 0x2e, 0xff, 0xe4,
  0x4c, 0x59, 0x9d, 0xa7, 0xc5, 0x69, 0x59, 0xcc, 0x20, 0xf7, 0x1c, 0x4b,
  0xd3, 0xba, 0x7f, 0xb5, 0xe3, 0x18, 0xd7, 0x4d, 0xe1, 0x40, 0x14, 0x08,
  0xea, 0x2d, 0x81, 0xe6, 0xe7, 0x4b, 0xff, 0xa8, 0xac, 0x6f, 0x25, 0xe6,
  0xad, 0xe7, 0x84, 0xa1, 0xea, 0xa5, 0x0e, 0xc4, 0x3c, 0xd9, 0x97, 0xf8,
  0x2f, 0xe8, 0x37, 0x11, 0xe0, 0x37, 0x16, 0xa6, 0xf8, 0xf5, 0xde, 0x52,
  0x68, 0x5e, 0xee, 0x5b, 0x2e, 0xb5, 0xdc, 0x91, 0x3b, 0xce, 0x50, 0x43,
  0x0f, 0xc7, 0x12, 0x3d, 0x81, 0xbe, 0xca, 0x4e, 0xaf, 0xdc, 0x0a, 0x5d,
  0x34, 0x2a, 0x0f, 0xcd, 0xf7, 0x14, 0xf6, 0xbd, 0xc2, 0xf7, 0x57, 0x98,
  0x4e, 0x05, 0x21, 0x55, 0xaf, 0x46, 0x87, 0x09, 0x1c, 0xb4, 0x3f, 0xd0,
  0xa3, 0xbb, 0xbd, 0x08, 0xbb, 0x7f, 0x57, 0x25, 0x69, 0x64, 0xf6, 0xfc,
  0x3e, 0xb2, 0x38, 0x29, 0x59, 0xcd, 0xbf, 0xb4, 0x34, 0xf1, 0x39, 0x64,
  0xe9, 0x39, 0xeb, 0xe7, 0xbc, 0xc6, 0xf3, 0x27, 0x01, 0xbe, 0xdc, 0xd4,
  0xc6, 0x1a, 0x2e, 0xda, 0x44, 0x81, 0x52, 0x30, 0xef, 0xd4, 0x0c, 0xf6,
  0xdc, 0x50, 0xab, 0xfd, 0xb8, 0xfc, 0x2d, 0x2e, 0x27, 0x12, 0x00, 0xba,
  0x81, 0xaa, 0xbf, 0x52, 0x49, 0x04, 0xf5, 0xb6, 0x30, 0x29, 0xc8, 0xff,
  0xbe, 0xab, 0x77, 0xba, 0x0e, 0x08, 0xcd, 0xee, 0xfb, 0x03, 0x30, 0xf6,
  0x0b, 0xf3, 0x48, 0xfb, 0x39, 0xb9, 0x57, 0x7f, 0xa1, 0xd5, 0xe4, 0xfb,
  0xed, 0xaf, 0x3d, 0xc7, 0x16, 0x29, 0xea, 0x00, 0xbe, 0x01, 0xc0, 0x31,
  0x3d, 0xe1, 0x4b, 0x5b, 0x06, 0x7e, 0x47, 0xd5, 0xa8, 0x54, 0x57, 0x14,
  0x18, 0xc5, 0x4a, 0x81, 0x37, 0xac, 0xc3, 0xcf, 0xda, 0xea, 0xa4, 0x32,
  0xd4, 0x20, 0x19, 0x23, 0x5d, 0x19, 0x50, 0x2a, 0x98, 0xe6, 0xfc, 0x1a,
  0x08, 0x08, 0x56, 0xa7, 0x19, 0x09, 0xdd, 0x81, 0x3a, 0xec, 0x24, 0x24,
  0xc8, 0xd6, 0x46, 0x41, 0x3b, 0xff, 0xe7, 0x25, 0xdd, 0xb1, 0x35, 0xa4,
  0x08, 0xda, 0x89, 0x35, 0x56, 0x33, 0xa7, 0xcd, 0x88, 0x33, 0xcc, 0xec,
  0xfe, 0x26, 0x4e, 0x7f, 0xf6, 0xee, 0xc3, 0xdb, 0x3b, 0x59, 0x39, 0xd4,
  0x2c, 0x5a, 0xbe, 0x35, 0x07, 0x2b, 0x27, 0xe9, 0x15, 0xb0, 0x35, 0xb8,
  0xf6, 0xcd, 0x1d, 0xba, 0x07, 0xf1, 0xe0, 0xd2, 0x81, 0x05, 0xf6, 0xac,
  0xab, 0x23, 0x52, 0x09, 0x45, 0x22, 0xe3, 0x11, 0x38, 0xf2, 0x03, 0x39,
  0xda, 0xe3, 0xdf, 0x91, 0x34, 0xfd, 0x01, 0xdb, 0x12, 0xe0, 0x3c, 0xcb,
  0xa4, 0xcc, 0x0f, 0x32, 0x8a, 0xfc, 0x19, 0x07, 0x12, 0x93, 0x92, 0xd8,
  0x45, 0xb0, 0xf8, 0x9c, 0x7f, 0x55, 0x0d, 0xc9, 0xe3, 0x4c, 0xca, 0x30,
  0xae, 0xa7, 0x7e, 0x29, 0xe4, 0x3d, 0xb7, 0xec, 0x11, 0xba, 0xb0, 0x2b,
  0x16, 0xfe, 0x5f, 0x82, 0x95, 0xf8, 0x6e, 0xa1, 0x9a, 0x60, 0x1b, 0x0a,
  0x90, 0x9c, 0x96, 0x5e, 0x0e, 0xfa, 0x90, 0x5b, 0x51, 0xbe, 0x28, 0x81,
  0x47, 0xbe, 0x22, 0xe2, 0xca, 0xd8, 0x1c, 0xc1, 0x14, 0x6e, 0xcd, 0x2e,
  0x35, 0xa6, 0xfb, 0x37, 0x81, 0xc3, 0x5a, 0x38, 0x0b, 0xd6, 0xcd, 0x62,
  0x24, 0x1f, 0xe8, 0xb0, 0xe3, 0x17, 0xf5, 0x00, 0xc5, 0xac, 0x1a, 0xe8,
  0xc3, 0xd4, 0x1f, 0xa4, 0x18, 0x1b, 0xe4, 0x16, 0xca, 0x77, 0x0d, 0x66,
  0x44, 0xc9, 0x30, 0xdf, 0x56, 0x7f, 0x09, 0x28, 0x3d, 0x9e, 0xaf, 0xde,
  0xd3, 0xdd, 0xdf, 0x33, 0x4e, 0xc7, 0xda, 0x12, 0x06, 0xbe, 0xcd, 0x81,
  0x1c, 0x4c, 0xd1, 0x55, 0x2b, 0x31, 0x10, 0xd1, 0x19, 0x1d, 0x9a, 0xe0,
  0xd0, 0x4c, 0x48, 0x37, 0x65, 0x25, 0x4d, 0x2b, 0xb4, 0xc1, 0xe2, 0xa1,
  0xef, 0x3c, 0x17, 0xd9, 0x01, 0xa5, 0x56, 0xd4, 0xb2, 0xf5, 0xde, 0xdf,
  0xdd, 0x04, 0xa1, 0xf1, 0xc2, 0xf4, 0x56, 0x46, 0x7f, 0xef, 0xf6, 0xd4,
  0x4b, 0x94, 0x26, 0xcb, 0xcf, 0x4d, 0xeb, 0xd2, 0x93, 0x23, 0x3a, 0x90,
  0xa7, 0xf0, 0xa8, 0x27, 0xd3, 0x1d, 0x8a, 0x1d, 0x81, 0xde, 0x04, 0x44,
  0xd4, 0x68, 0x98, 0x23, 0x39, 0x9a, 0x1c, 0xc6, 0xf2, 0xba, 0x25, 0xb4,
  0x2c, 0x1d, 0x2b, 0xac, 0xf9, 0xc6, 0x04, 0x06, 0x22, 0x3d, 0x23, 0x5c,
  0xde, 0x00, 0xbd, 0x1e, 0xda, 0xea, 0x62, 0xdf, 0x42, 0x9c, 0x33, 0x35,
  0x9d, 0x72, 0xb7, 0xe2, 0x7f, 0xce, 0x60, 0xe0, 0xc2, 0x37, 0xbb, 0xc1,
  0x26, 0xc6, 0x38, 0xea, 0xba, 0x38, 0xd1, 0xf3, 0x37, 0xd5, 0x3f, 0x17,
  0x1a, 0x3e, 0xdc, 0x05, 0x25, 0x47, 0xcc, 0xc3, 0x1e, 0x59, 0xa7, 0xd2,
  0xc7, 0x7f, 0xeb, 0xf9, 0x06, 0x46, 0xc3, 0xc1, 0xcc, 0xd3, 0x9e, 0x81,
  0xc8, 0xe6, 0x58, 0xf1, 0xf1, 0xf0, 0xca, 0x15, 0xf8, 0x70, 0xcf, 0x43,
  0x8f, 0x1a, 0x10, 0xbe, 0xfc, 0xdf, 0x40, 0xde, 0x07, 0xb1, 0xc2, 0xa4,
  0x23, 0xb8, 0x5a, 0xda, 0x58, 0x0f, 0xc1, 0xd7, 0x39, 0xbd, 0x22, 0xf2,
  0x81, 0x3d, 0xd1, 0x0a, 0xfb, 0xe0, 0xf5, 0x86, 0x44, 0x72, 0x4b, 0x13,
  0xb6, 0x35, 0x54, 0x43, 0x27, 0xbc, 0x4e, 0x51, 0xc2, 0x2e, 0xf3, 0xe7,
  0x3f, 0x18, 0xee, 0x5b, 0xdf, 0xd0, 0x0c, 0xcb, 0x7d, 0x39, 0x04, 0xe4,
  0x4a, 0xbb, 0x3d, 0x7f, 0x2b, 0x3e, 0x45, 0xfe, 0x0e, 0x88, 0xe4, 0xdc,
  0x8f, 0xa7, 0x50, 0xd4, 0xa8, 0xac, 0x25, 0x0a, 0x49, 0x15, 0x2e, 0x0b,
  0x63, 0xe5, 0xca, 0xce, 0xe3, 0x00, 0xcd, 0x2f, 0xf5, 0x0e, 0x41, 0x5c,
  0x82, 0xab, 0xed, 0x6f, 0x14, 0x2c, 0x81, 0xfc, 0x24, 0xaa, 0x5b, 0xfa,
  0x32, 0xe4, 0xf0, 0x13, 0x81, 0xd7, 0x0b, 0xd8, 0x6c, 0xc8, 0xab, 0xcf,
  0x91, 0x3f, 0xc9, 0x12, 0x29, 0x2f, 0xa2, 0x22, 0x77, 0x9e, 0x30, 0xa1,
  0x28, 0x1f, 0x3f, 0xd1, 0x89, 0xb2, 0xac, 0xc3, 0x21, 0x38, 0xa8, 0xad,
  0xb3, 0xf7, 0x53, 0xcb, 0x1e, 0x41, 0xf9, 0xd9, 0x2a, 0xc4, 0x27, 0xb8,
  0x7f, 0xf7, 0x0f, 0x0c, 0x18, 0xeb, 0x55, 0x43, 0x27, 0xe4, 0xef, 0xab,
  0x42, 0xb2, 0xc3, 0x47, 0x43, 0x01, 0x93, 0xbb, 0x1c, 0x10, 0x10, 0x66,
  0xc3, 0xd3, 0x12, 0xf7, 0xc0, 0xe8, 0xcc, 0x7d, 0x28, 0xab, 0x81, 0x77,
  0xa1, 0x31, 0x43, 0x6a, 0x48, 0xbb, 0x07, 0x65, 0x8d, 0x07, 0x7b, 0x39,
  0xa4, 0x91, 0xd9, 0x51, 0xca, 0xcc, 0x0b, 0xde, 0x3d, 0x5f, 0x27, 0x7f,
  0xf8, 0x40, 0xc1, 0x22, 0x90, 0x97, 0x26, 0x57, 0x1d, 0xeb, 0xc2, 0x14,
  0x4f, 0xc8, 0xd7, 0x56, 0xff, 0x23, 0x5e, 0xfb, 0x26, 0x2f, 0x93, 0xc6,
  0xda, 0xd5, 0xf7, 0x08, 0xf0, 0x6f, 0xfb, 0xae, 0x05, 0x1e, 0x26, 0xa3,
  0x38, 0x96, 0xb4, 0x63, 0xf1, 0x39, 0x4e, 0xc1, 0xb2, 0xc8, 0x2d, 0xa3,
  0x7f, 0x9d, 0x12, 0x28, 0x75, 0xd3, 0x17, 0x10, 0x2a, 0x33, 0xcc, 0x45,
  0xfa, 0xbe, 0xf5, 0x4e, 0x00, 0xba, 0x81, 0x9f, 0x50, 0x44, 0x2e, 0x1a,
  0x09, 0xc9, 0xd6, 0xf1, 0x1f, 0xd7, 0xf3, 0x3a, 0xd9, 0x3a, 0x4c, 0xd1,
  0x14, 0x24, 0x48, 0xf9, 0x9d, 0xf6, 0x38, 0x29, 0x8b, 0xc0, 0x37, 0xfd,
  0xf6, 0x2d, 0x27, 0x62, 0xcb, 0x46, 0xbc, 0xe2, 0xc8, 0x52, 0xca, 0x12,
  0x26, 0x0f, 0xfe, 0x81, 0x6e, 0xd7, 0x33, 0x63, 0x33, 0x2d, 0xc0, 0xed,
  0x21, 0xa0, 0xea, 0x11, 0xb0, 0x40, 0x7f, 0xf9, 0xd2, 0xc5, 0xb0, 0xde,
  0x24, 0xdf, 0xab, 0x42, 0x3c, 0x4d, 0x34, 0x3e, 0x37, 0x22, 0x53, 0x03,
  0x16, 0xd1, 0x9f, 0xb0, 0x2c, 0x49, 0x4a, 0xf0, 0xb1, 0xe3, 0xa7, 0x0c,
  0x93, 0x36, 0xea, 0xe3, 0x3c, 0xb5, 0xe0, 0xbe, 0xe2, 0xdb, 0xa6, 0x21,
  0xb8, 0x2e, 0xc9, 0x15, 0x2d, 0x2e, 0x81, 0xd5, 0x69, 0x45, 0xbd, 0x87,
  0xd2, 0xad, 0x7b, 0xa9, 0xa3, 0x04, 0xfd, 0xdf, 0x01, 0x66, 0xfd, 0x89,
  0x08, 0xed, 0xd6, 0xb2, 0x77, 0x2c, 0x6b, 0x77, 0xfc, 0xe1, 0x81, 0x1a,
  0xc2, 0x9f, 0xde, 0xc1, 0x56, 0xcf, 0x7e, 0x5d, 0xf6, 0xd7, 0xfa, 0x45,
  0xb6, 0xea, 0xff, 0xff, 0x04, 0x00, 0x00, 0x00, 0x00, 0x01, 0x00, 0x00,
  0x5b, 0x00, 0x00, 0x00, 0x2e, 0x01, 0x00, 0x00, 0xea, 0x01, 0x00, 0x00,
  0xa5, 0xff, 0xff, 0xff, 0xda, 0xfb, 0xff, 0xff, 0xca, 0xfc, 0xff, 0xff,
  0xa1, 0xfe, 0xff, 0xff, 0xf9, 0x00, 0x00, 0x00, 0xe2, 0xfe, 0xff, 0xff,
  0x61, 0xfd, 0xff, 0xff, 0x6d, 0xfd, 0xff, 0xff, 0xdd, 0xfe, 0xff, 0xff,
  0xf0, 0xfe, 0xff, 0xff, 0x34, 0x01, 0x00, 0x00, 0x38, 0x02, 0x00, 0x00,
  0x2c, 0x01, 0x00, 0x00, 0x13, 0xfe, 0xff, 0xff, 0x52, 0xfe, 0xff, 0xff,
  0x96, 0xfc, 0xff, 0xff, 0xbc, 0xff, 0xff, 0xff, 0x0c, 0xfe, 0xff, 0xff,
  0xa1, 0xfc, 0xff, 0xff, 0xad, 0xfd, 0xff, 0xff, 0x92, 0xff, 0xff, 0xff,
  0xe3, 0xff, 0xff, 0xff, 0xd6, 0xff, 0xff, 0xff, 0xc6, 0x00, 0x00, 0x00,
  0x90, 0xfe, 0xff, 0xff, 0x83, 0xfe, 0xff, 0xff, 0x35, 0xfd, 0xff, 0xff,
  0xe9, 0xff, 0xff, 0xff, 0x09, 0x00, 0x00, 0x00, 0x3b, 0x02, 0x00, 0x00,
  0x27, 0xfe, 0xff, 0xff, 0x12, 0xfe, 0xff, 0xff, 0x40, 0x00, 0x00, 0x00,
  0xdd, 0xfe, 0xff, 0xff, 0x06, 0xfd, 0xff, 0xff, 0xbc, 0xfd, 0xff, 0xff,
  0x44, 0xfc, 0xff, 0xff, 0x95, 0xff, 0xff, 0xff, 0x2c, 0x00, 0x00, 0x00,
  0x4f, 0x02, 0x00, 0x00, 0xe6, 0xfe, 0xff, 0xff, 0xa1, 0x00, 0x00, 0x00,
  0x0f, 0x02, 0x00, 0x00, 0x22, 0xfd, 0xff, 0xff, 0x37, 0xfe, 0xff, 0xff,
  0x17, 0x01, 0x00, 0x00, 0x97, 0xfb, 0xff, 0xff, 0xe6, 0xfd, 0xff, 0xff,
  0xe8, 0x00, 0x00, 0x00, 0x37, 0xfe, 0xff, 0xff, 0x5b, 0x01, 0x00, 0x00,
  0x7c, 0xff, 0xff, 0xff, 0x51, 0xfd, 0xff, 0xff, 0xa7, 0xfe, 0xff, 0xff,
  0x94, 0xfe, 0xff, 0xff, 0x8c, 0xfa, 0xff, 0xff, 0x7b, 0xfe, 0xff, 0xff,
  0x08, 0xfe, 0xff, 0xff, 0x9e, 0xff, 0xff, 0xff, 0x06, 0x00, 0x00, 0x00,
  0xb0, 0xfe, 0xff, 0xff, 0xc2, 0xeb, 0xff, 0xff, 0x04, 0x00, 0x00, 0x00,
  0x60, 0x00, 0x00, 0x00, 0x55, 0x1c, 0xe2, 0x8e, 0xbf, 0x7f, 0x81, 0xf8,
  0x81, 0xa8, 0xd0, 0x24, 0x81, 0x7f, 0x38, 0x9f, 0xcb, 0x0a, 0xc9, 0xea,
  0xe5, 0x7f, 0x81, 0xdc, 0x81, 0x57, 0x66, 0x7f, 0x6e, 0x9f, 0x63, 0x3d,
  0x81, 0x2b, 0x7f, 0x7f, 0x30, 0x32, 0xbd, 0xa7, 0x2a, 0x46, 0x81, 0x93,
  0x2f, 0x03, 0x04, 0x65, 0x7f, 0x7f, 0x81, 0xce, 0x81, 0x23, 0xbe, 0x9a,
  0x28, 0x81, 0x7f, 0x19, 0x7f, 0xe3, 0x9a, 0x8c, 0xa1, 0x81, 0xa2, 0x33,
  0x7f, 0x03, 0x48, 0x81, 0xdc, 0x81, 0xa4, 0x7f, 0xd3, 0x04, 0x7f, 0x7f,
  0x58, 0x33, 0xd5, 0x81, 0xaa, 0x31, 0xec, 0x81, 0x95, 0xd6, 0xba, 0xa5,
  0xdb, 0x81, 0x81, 0x81, 0x2e, 0xec, 0xff, 0xff, 0x04, 0x00, 0x00, 0x00,
  0x80, 0x00, 0x00, 0x00, 0x00, 0x00, 0x00, 0x00, 0x00, 0x00, 0x00, 0x00,
  0x00, 0x00, 0x00, 0x00, 0x00, 0x00, 0x00, 0x00, 0x00, 0x00, 0x00, 0x00,
  0x00, 0x00, 0x00, 0x00, 0x00, 0x00, 0x00, 0x00, 0x00, 0x00, 0x00, 0x00,
  0x00, 0x00, 0x00, 0x00, 0x00, 0x00, 0x00, 0x00, 0x00, 0x00, 0x00, 0x00,
  0x00, 0x00, 0x00, 0x00, 0x00, 0x00, 0x00, 0x00, 0x00, 0x00, 0x00, 0x00,
  0x00, 0x00, 0x00, 0x00, 0x00, 0x00, 0x00, 0x00, 0x00, 0x00, 0x00, 0x00,
  0x00, 0x00, 0x00, 0x00, 0x00, 0x00, 0x00, 0x00, 0x00, 0x00, 0x00, 0x00,
  0x00, 0x00, 0x00, 0x00, 0x00, 0x00, 0x00, 0x00, 0x00, 0x00, 0x00, 0x00,
  0x00, 0x00, 0x00, 0x00, 0x00, 0x00, 0x00, 0x00, 0x00, 0x00, 0x00, 0x00,
  0x00, 0x00, 0x00, 0x00, 0x00, 0x00, 0x00, 0x00, 0x00, 0x00, 0x00, 0x00,
  0x00, 0x00, 0x00, 0x00, 0x00, 0x00, 0x00, 0x00, 0x00, 0x00, 0x00, 0x00,
  0xba, 0xec, 0xff, 0xff, 0x04, 0x00, 0x00, 0x00, 0x00, 0x08, 0x00, 0x00,
  0x4f, 0xd1, 0x3d, 0x14, 0x27, 0xda, 0xb1, 0x00, 0xf8, 0xad, 0x37, 0x0b,
  0x20, 0xeb, 0xac, 0xa9, 0x00, 0xef, 0x2d, 0xe9, 0x7f, 0xf8, 0x33, 0x53,
  0xb5, 0x63, 0xba, 0xbf, 0xd6, 0x66, 0x20, 0x78, 0x15, 0xfa, 0x29, 0xe1,
  0xc5, 0x19, 0xd8, 0x38, 0xcf, 0xe0, 0xe8, 0x31, 0x0d, 0x0d, 0xb6, 0xfa,
  0xf2, 0xf3, 0xc6, 0xcb, 0x2d, 0xd9, 0x0e, 0xb3, 0xd0, 0x7f, 0xcd, 0xcb,
  0x1b, 0x06, 0x12, 0xbd, 0xeb, 0xdf, 0x30, 0xa4, 0xe7, 0x42, 0xb7, 0x3d,
  0x0b, 0xde, 0xd5, 0x14, 0xc4, 0xfe, 0x14, 0x0e, 0x08, 0xe5, 0xcb, 0x28,
  0x13, 0xe9, 0x02, 0x0c, 0xcc, 0x7f, 0x41, 0x49, 0xed, 0x28, 0x9c, 0x3d,
  0x09, 0x1b, 0xe6, 0x35, 0x5f, 0xe0, 0xc8, 0xb4, 0x01, 0x25, 0x52, 0x82,
  0x81, 0x2d, 0x3f, 0xb2, 0x2f, 0xa6, 0xdb, 0xbc, 0x27, 0x1e, 0x1e, 0xde,
  0xf7, 0xf2, 0xf2, 0xf1, 0xec, 0x21, 0x67, 0xd9, 0x38, 0x03, 0x14, 0x0e,
  0x3a, 0xe6, 0x45, 0xe8, 0x68, 0xec, 0xe0, 0x0f, 0x8e, 0xf2, 0x65, 0x08,
  0xe2, 0xce, 0x95, 0x4b, 0xc6, 0x52, 0xa9, 0x19, 0xa1, 0x7b, 0x18, 0x4b,
  0x7f, 0xd8, 0xcb, 0x3d, 0xf7, 0x21, 0xf2, 0x32, 0xf1, 0xb9, 0x9b, 0xfd,
  0x07, 0xf1, 0x5e, 0x1f, 0x3b, 0x81, 0xde, 0xc9, 0xdc, 0xe3, 0x1d, 0xd7,
  0xf7, 0xcb, 0x93, 0x77, 0x14, 0xf2, 0x2b, 0xd6, 0xd4, 0xce, 0x23, 0xaf,
  0x49, 0xab, 0xc7, 0x2f, 0xea, 0xd2, 0xe7, 0xca, 0x26, 0x23, 0x21, 0xda,
  0xda, 0x0a, 0x2a, 0xde, 0x44, 0xbf, 0x7f, 0x15, 0x17, 0x2d, 0x0d, 0xca,
  0x3d, 0xe1, 0xfc, 0x35, 0x3e, 0xee, 0x23, 0x34, 0x64, 0x0f, 0x0f, 0x0a,
  0x35, 0x23, 0x81, 0xa6, 0x59, 0xb4, 0x33, 0x20, 0xde, 0xd6, 0xaa, 0xe1,
  0xef, 0xde, 0x29, 0xe9, 0x51, 0x8c, 0x14, 0xc5, 0x16, 0xd9, 0x04, 0x89,
  0x06, 0x29, 0x34, 0xf1, 0xa9, 0xaf, 0xb4, 0xba, 0x39, 0x67, 0x14, 0x42,
  0x05, 0xa7, 0x48, 0x28, 0x4f, 0x15, 0xf4, 0x71, 0xe7, 0xb6, 0xba, 0xdd,
  0xdd, 0xf7, 0xcb, 0xb7, 0x1d, 0x31, 0xf9, 0xd8, 0x44, 0xbe, 0x7f, 0xb9,
  0x13, 0x4d, 0x7f, 0x37, 0x21, 0x23, 0xff, 0xf3, 0xe4, 0xc5, 0x17, 0x35,
  0xe1, 0xf5, 0xbe, 0x62, 0xfe, 0x0d, 0x35, 0x1a, 0x18, 0x1c, 0xfa, 0x38,
  0x24, 0xb8, 0x25, 0x0f, 0x21, 0xaa, 0x08, 0xe8, 0xc6, 0x81, 0xdc, 0x91,
  0x24, 0x62, 0x38, 0xe1, 0x6e, 0x8d, 0x6c, 0x82, 0x32, 0x8d, 0x1a, 0xe5,
  0xad, 0x78, 0xe7, 0xc3, 0x91, 0x3a, 0xeb, 0xb0, 0x82, 0x6c, 0xee, 0x1f,
  0xba, 0x1c, 0x1f, 0x69, 0x06, 0x58, 0xbc, 0x4f, 0xa1, 0x81, 0xf1, 0x00,
  0x62, 0x22, 0x4c, 0xde, 0xb7, 0x15, 0x95, 0x50, 0xa0, 0x3f, 0x31, 0xe6,
  0xd4, 0xf4, 0x49, 0xe9, 0x01, 0xf4, 0x59, 0x61, 0x39, 0x35, 0x58, 0xd0,
  0xdb, 0x17, 0xf6, 0xba, 0xd2, 0xf1, 0x7f, 0x30, 0x04, 0xcb, 0x01, 0x22,
  0xb3, 0x17, 0x12, 0xfa, 0x29, 0xec, 0x44, 0x0f, 0x1e, 0x39, 0xf0, 0x9e,
  0x1f, 0x49, 0xf0, 0x03, 0xa6, 0xb9, 0xc4, 0xc0, 0xe0, 0xfa, 0x24, 0x51,
  0x37, 0xf1, 0x43, 0x55, 0x0c, 0x20, 0xdd, 0x11, 0x7f, 0x47, 0x3f, 0x1e,
  0xc9, 0xcb, 0x36, 0xee, 0xe7, 0xe9, 0x14, 0x16, 0x38, 0x3a, 0x22, 0xf9,
  0xec, 0x7a, 0x15, 0xa9, 0xc9, 0xd6, 0xf3, 0xaf, 0x41, 0xfc, 0x2f, 0xcd,
  0xf3, 0xcc, 0xbf, 0x4c, 0x77, 0xee, 0xe6, 0x2f, 0xe9, 0x2c, 0x11, 0x7b,
  0x7f, 0xfe, 0x05, 0xcf, 0x5b, 0x42, 0x9f, 0x0b, 0x59, 0xc0, 0x9e, 0x49,
  0x8c, 0x7f, 0x1a, 0x54, 0x18, 0x19, 0x36, 0x19, 0xba, 0xdd, 0x0e, 0xb4,
  0x5e, 0xaf, 0x33, 0xaa, 0x15, 0x4d, 0xb8, 0x15, 0x29, 0xd8, 0x24, 0x09,
  0x4a, 0x7e, 0xfc, 0xc2, 0x41, 0x0b, 0xee, 0x1c, 0xad, 0x7f, 0x32, 0xda,
  0x07, 0x30, 0xec, 0x0f, 0xf9, 0x0d, 0x3b, 0xa8, 0x2e, 0xbe, 0x1d, 0xdf,
  0x21, 0x3c, 0xc5, 0xeb, 0x5d, 0x1c, 0xcc, 0xee, 0xbe, 0x08, 0xd9, 0xd7,
  0x43, 0xc4, 0xb8, 0x5c, 0xe5, 0xbc, 0xc4, 0x79, 0xbd, 0xc2, 0xfb, 0x43,
  0x7f, 0x78, 0x57, 0x78, 0x01, 0x5a, 0x06, 0x16, 0x7a, 0xcd, 0x00, 0x4e,
  0x47, 0xb2, 0x35, 0xc2, 0xc2, 0xb4, 0x38, 0xc5, 0xe1, 0xc6, 0xef, 0xde,
  0x2c, 0xd3, 0xe6, 0xb8, 0xe3, 0x93, 0x36, 0x62, 0xbc, 0x34, 0x7f, 0xf3,
  0x3c, 0x19, 0x0d, 0xf7, 0xd9, 0xde, 0x9a, 0xc7, 0x36, 0x02, 0x1e, 0xd0,
  0x51, 0x47, 0x48, 0x2f, 0x22, 0xe5, 0x98, 0xbe, 0xe7, 0x77, 0xc9, 0xf5,
  0xd8, 0x39, 0xcf, 0x1a, 0xf3, 0xb3, 0x21, 0x46, 0x7f, 0x62, 0x72, 0x11,
  0xb9, 0x57, 0x51, 0xe4, 0xe4, 0x8e, 0x76, 0x04, 0x09, 0x4b, 0xc4, 0xe8,
  0x21, 0x6d, 0x61, 0x5d, 0x1e, 0xc0, 0xed, 0x81, 0x16, 0xc4, 0x16, 0xb7,
  0x2e, 0x05, 0x50, 0x55, 0xb1, 0x3b, 0x30, 0x14, 0xda, 0xf6, 0x1f, 0xc8,
  0x6e, 0x3a, 0xd8, 0x38, 0xbc, 0xc9, 0xa6, 0xd8, 0x33, 0xfb, 0x1d, 0x2e,
  0xf8, 0x2a, 0xed, 0xcd, 0xdb, 0xde, 0x06, 0xfb, 0x00, 0x29, 0x2b, 0xdb,
  0xad, 0x5d, 0x0c, 0xe8, 0x16, 0xba, 0x48, 0x6c, 0xcd, 0x37, 0x44, 0x16,
  0xcb, 0xef, 0x22, 0x81, 0x3d, 0x28, 0x29, 0xeb, 0x2d, 0x7b, 0xff, 0x34,
  0xc8, 0x5e, 0x04, 0x3a, 0x44, 0xc6, 0x11, 0xae, 0x3a, 0xb2, 0xea, 0x33,
  0xdd, 0x06, 0x08, 0xae, 0x7f, 0xe4, 0xca, 0xba, 0x1e, 0x09, 0xc2, 0xf1,
  0x17, 0x84, 0xd4, 0x04, 0x42, 0xfa, 0xf8, 0xb6, 0x34, 0x96, 0xc2, 0xba,
  0x21, 0x02, 0x60, 0xfc, 0x32, 0x06, 0x3f, 0xe8, 0x15, 0x5e, 0x2a, 0xb1,
  0x81, 0xe9, 0xfd, 0xc1, 0x04, 0xf6, 0x14, 0xb7, 0xfd, 0xe1, 0x1f, 0xc6,
  0xa5, 0xd8, 0xdc, 0xbf, 0x10, 0x0e, 0x02, 0xc2, 0xcf, 0x42, 0x1e, 0x05,
  0x35, 0xe6, 0x38, 0x3b, 0x42, 0xe0, 0xcd, 0xd2, 0x7f, 0xc2, 0xf7, 0xfb,
  0x08, 0xda, 0x1f, 0xd7, 0xfc, 0xf5, 0x5c, 0xbc, 0xe9, 0x19, 0xdc, 0xad,
  0x11, 0xcc, 0x32, 0x15, 0x4e, 0xf2, 0x53, 0xee, 0xb0, 0x0b, 0x3b, 0x18,
  0xe3, 0x5f, 0x90, 0x3a, 0x9e, 0x0a, 0xed, 0x7f, 0xc1, 0xe1, 0xc0, 0xd3,
  0x07, 0x7d, 0x92, 0x45, 0x52, 0x10, 0xf0, 0x13, 0xca, 0xc6, 0x0f, 0x81,
  0x11, 0xf0, 0x3d, 0xa5, 0xac, 0xf3, 0xcd, 0xe7, 0xea, 0x5a, 0x5e, 0xb2,
  0x7a, 0x35, 0x97, 0x62, 0xad, 0x2c, 0xe0, 0xa7, 0x3e, 0xf1, 0x9b, 0xbc,
  0xb2, 0x56, 0x95, 0x02, 0x4e, 0xbf, 0x81, 0x13, 0xe5, 0x1f, 0x3a, 0xa3,
  0xc0, 0xe8, 0x28, 0x29, 0x1f, 0x2c, 0xb8, 0xf1, 0x15, 0xdd, 0x2b, 0xcc,
  0xc5, 0xf1, 0x58, 0xe2, 0x08, 0xe4, 0xbf, 0xc0, 0x70, 0xf9, 0xc8, 0x00,
  0x21, 0x14, 0xfb, 0xcd, 0x40, 0x07, 0xf1, 0xa9, 0x5d, 0x4e, 0x0d, 0xfa,
  0xef, 0xd8, 0x35, 0x99, 0x2a, 0x94, 0xc1, 0xdf, 0x3e, 0x0d, 0x10, 0xeb,
  0xf0, 0x07, 0x7f, 0x31, 0xf5, 0xd3, 0x20, 0xa9, 0xc7, 0x6e, 0x5e, 0xd1,
  0x14, 0x38, 0xe0, 0xc1, 0x2d, 0xb8, 0x19, 0x22, 0xfd, 0xce, 0x18, 0x48,
  0xbe, 0xdb, 0x48, 0xd9, 0xcb, 0x29, 0x7f, 0x27, 0x0a, 0xbd, 0xef, 0x04,
  0x40, 0xf1, 0x14, 0xd7, 0xff, 0xfc, 0x09, 0x4f, 0x0f, 0x7f, 0x61, 0x85,
  0x3d, 0xfb, 0xc2, 0xf1, 0xe9, 0xe8, 0xf5, 0x3b, 0x34, 0xf8, 0xbf, 0x09,
  0x42, 0x74, 0x5a, 0x23, 0xd3, 0xbf, 0x04, 0xe6, 0xea, 0x5d, 0x13, 0x04,
  0xc1, 0xfb, 0xb2, 0x9a, 0xaf, 0x8c, 0x81, 0x04, 0x53, 0x1d, 0xfd, 0x08,
  0xfe, 0x10, 0xc3, 0xd7, 0x9c, 0x45, 0x15, 0xd8, 0x64, 0xa8, 0x4a, 0x1b,
  0x18, 0x0a, 0xf8, 0xda, 0xb8, 0x28, 0x9a, 0x65, 0x46, 0x62, 0xfc, 0xba,
  0x35, 0x3a, 0xb5, 0xda, 0xb4, 0xf7, 0x25, 0xc1, 0x1b, 0xbc, 0x13, 0x30,
  0x21, 0x70, 0xa9, 0x57, 0x81, 0xe3, 0x2f, 0x76, 0xc3, 0xe7, 0xc1, 0xdd,
  0xa7, 0x15, 0xba, 0x52, 0xea, 0x54, 0xd6, 0x81, 0x44, 0xbf, 0x7f, 0x83,
  0x53, 0x7b, 0xb5, 0x2b, 0x63, 0x6a, 0x24, 0xb1, 0x4b, 0xf1, 0x2c, 0x3b,
  0xca, 0x5c, 0xb0, 0x58, 0xdf, 0x4c, 0xc4, 0xdf, 0x6b, 0x94, 0xb2, 0xdd,
  0x63, 0xd4, 0xfe, 0x9c, 0xc0, 0xa7, 0xed, 0x34, 0xdd, 0x2b, 0xa3, 0x85,
  0xc6, 0xb1, 0xee, 0x9b, 0xb7, 0xfa, 0x2d, 0x46, 0x15, 0x4a, 0x81, 0x28,
  0xf8, 0xcc, 0x25, 0x73, 0x54, 0xfb, 0x04, 0x27, 0x95, 0x55, 0x62, 0x1c,
  0xa6, 0x52, 0x73, 0x3f, 0xf8, 0xe7, 0x81, 0xdb, 0xa2, 0x1f, 0xaf, 0xd3,
  0x2b, 0x42, 0xe9, 0xda, 0x66, 0x99, 0xa9, 0xf8, 0xb7, 0x0d, 0x07, 0x05,
  0xa0, 0x38, 0x3a, 0xb6, 0xfb, 0xce, 0xb0, 0xe9, 0xb8, 0xed, 0x30, 0xda,
  0xdc, 0xe5, 0x22, 0x11, 0xa4, 0x07, 0xf7, 0xfc, 0x29, 0xed, 0x65, 0xe1,
  0x46, 0xfd, 0x81, 0x62, 0xe9, 0xf0, 0xa4, 0x37, 0xc8, 0xf0, 0x17, 0xae,
  0x38, 0x2e, 0x27, 0xe5, 0x3e, 0x6f, 0x5f, 0xd0, 0x0f, 0xa8, 0x46, 0xfa,
  0xf6, 0x1d, 0x38, 0x4c, 0x67, 0x70, 0xc3, 0x22, 0x88, 0x0f, 0x9a, 0x8c,
  0xcf, 0xb1, 0xd0, 0x7f, 0x51, 0x03, 0x10, 0x29, 0x27, 0xca, 0x0a, 0x2b,
  0x96, 0x3d, 0xb8, 0x18, 0xec, 0x49, 0xbb, 0x6e, 0xf2, 0xce, 0xf4, 0x1c,
  0x38, 0xf4, 0xe0, 0x3a, 0x33, 0x4b, 0xb9, 0x83, 0x81, 0x17, 0x0c, 0x3a,
  0x0d, 0x81, 0xcd, 0xc7, 0xef, 0xce, 0xf5, 0xe2, 0xc2, 0x28, 0x15, 0x33,
  0x2c, 0x2d, 0x21, 0x7b, 0xaa, 0xfe, 0x22, 0x78, 0xec, 0xbd, 0x2f, 0xdb,
  0x6d, 0xd2, 0x16, 0x11, 0xf0, 0xea, 0xb3, 0x8c, 0xd5, 0xe1, 0xd8, 0xac,
  0x10, 0xef, 0xe2, 0x1b, 0x3a, 0xce, 0x39, 0xbc, 0xbf, 0x11, 0x09, 0xa9,
  0x61, 0xe1, 0x03, 0x7f, 0x0f, 0x11, 0x0c, 0x35, 0x08, 0x86, 0x19, 0x60,
  0xf7, 0xd5, 0xf7, 0xfa, 0xe2, 0xb6, 0xdc, 0x25, 0xcf, 0x81, 0x18, 0xed,
  0x57, 0x10, 0x47, 0xd1, 0x01, 0x42, 0xfb, 0x00, 0x3e, 0xd7, 0x17, 0xfe,
  0x15, 0x20, 0xde, 0x04, 0xf1, 0x33, 0x29, 0xe1, 0xb0, 0xe8, 0x1c, 0x33,
  0x06, 0x39, 0x15, 0xda, 0xcb, 0x2f, 0x0a, 0xf0, 0xbd, 0xda, 0x22, 0x99,
  0xc4, 0x89, 0xda, 0xf6, 0xea, 0xf3, 0xd0, 0xd6, 0x5f, 0x22, 0x08, 0xee,
  0x2d, 0x7f, 0xc7, 0xff, 0x0c, 0xbe, 0xf7, 0x07, 0x44, 0x02, 0x9c, 0xcb,
  0xda, 0xd1, 0x33, 0x2c, 0x58, 0x33, 0xc9, 0x1b, 0xb5, 0xbe, 0x7a, 0x4b,
  0x00, 0xb8, 0x63, 0x13, 0x9e, 0x81, 0xa6, 0xf0, 0x4d, 0x1c, 0x46, 0x3d,
  0x65, 0x2a, 0x53, 0xab, 0xfb, 0x7f, 0xdb, 0x3e, 0x1d, 0x1f, 0xd7, 0xb7,
  0x11, 0x35, 0x09, 0x27, 0xe2, 0xa2, 0x2f, 0x1b, 0x4e, 0xe7, 0xf2, 0xd6,
  0xea, 0x05, 0xf3, 0x2a, 0xe3, 0x54, 0xfa, 0x31, 0x0f, 0x2b, 0xfe, 0xf5,
  0x40, 0x7f, 0xe0, 0xbf, 0x10, 0x3b, 0x0c, 0xcd, 0x62, 0x0d, 0x37, 0xd6,
  0xc5, 0x4c, 0xe6, 0x2f, 0x2c, 0x6e, 0xe1, 0xff, 0x0c, 0xb2, 0xe4, 0x19,
  0xac, 0x2f, 0xc2, 0xc6, 0x2f, 0x2d, 0x4a, 0x26, 0xcb, 0xc5, 0xcf, 0xc2,
  0xd2, 0x1d, 0xfc, 0xf3, 0xdf, 0x45, 0x4a, 0x39, 0x07, 0xcc, 0x9a, 0xfb,
  0xf8, 0x07, 0x52, 0x34, 0x00, 0x7f, 0xcd, 0xbc, 0xb9, 0xd4, 0x0d, 0x46,
  0x32, 0x3f, 0x16, 0x51, 0xbb, 0xab, 0x23, 0xf5, 0x16, 0x69, 0x6a, 0xc6,
  0x16, 0x08, 0xa8, 0x49, 0xb1, 0xf7, 0x14, 0xe4, 0x9e, 0x1f, 0x6a, 0xe7,
  0x1b, 0x81, 0xbd, 0xfa, 0xf0, 0xf0, 0xa7, 0x22, 0x60, 0xaf, 0x0f, 0x89,
  0xfe, 0xd6, 0xff, 0x45, 0x1f, 0x27, 0xe6, 0x05, 0xdc, 0x27, 0x29, 0x87,
  0x0b, 0xd8, 0x34, 0xf3, 0xb8, 0x06, 0x29, 0x2a, 0x17, 0x57, 0xc8, 0xcc,
  0x14, 0xdb, 0x00, 0x81, 0x0d, 0x2b, 0xdf, 0x09, 0xec, 0xe7, 0x7f, 0x26,
  0xc0, 0x40, 0xd0, 0xe7, 0xa3, 0xf2, 0xb6, 0x2a, 0x1e, 0x3e, 0xb4, 0xde,
  0xf4, 0xd3, 0x1c, 0xbe, 0xdf, 0x2b, 0x12, 0x35, 0x33, 0x0a, 0x58, 0x0f,
  0xde, 0xf0, 0xa1, 0x56, 0xee, 0xbb, 0xda, 0xa2, 0xec, 0xce, 0x11, 0xad,
  0x8c, 0xf6, 0x30, 0x28, 0xf1, 0x1f, 0x01, 0xa1, 0x17, 0x81, 0x5c, 0x08,
  0x2b, 0x5a, 0xde, 0xf5, 0xf5, 0x01, 0xf8, 0xc5, 0x2e, 0xc6, 0x62, 0xd1,
  0xbb, 0x59, 0xac, 0xad, 0xaf, 0xa2, 0xbd, 0x64, 0x50, 0xd7, 0x1e, 0xc0,
  0xb6, 0xe5, 0xf3, 0x8f, 0x0d, 0x2b, 0x5a, 0x32, 0xce, 0x2d, 0xeb, 0x0e,
  0xf8, 0xd4, 0xcd, 0x58, 0x9c, 0x38, 0x61, 0x7f, 0x41, 0xbf, 0x28, 0x6e,
  0xa2, 0x23, 0x6e, 0xe7, 0x43, 0x0f, 0xb3, 0x71, 0x34, 0x1c, 0xce, 0x2b,
  0xaf, 0x3a, 0x1f, 0x04, 0xff, 0x56, 0xa8, 0xd2, 0x30, 0xfa, 0xc3, 0x70,
  0xe5, 0xc9, 0x81, 0x91, 0xd8, 0x37, 0xaa, 0x32, 0x4a, 0x47, 0x44, 0x25,
  0xb5, 0x69, 0xbc, 0xe8, 0x3f, 0xce, 0xef, 0x51, 0x9c, 0x73, 0xf3, 0xf9,
  0x81, 0x0b, 0x11, 0x8c, 0xda, 0xb0, 0x44, 0xfd, 0xf8, 0x29, 0xb6, 0x66,
  0xfd, 0x61, 0xe3, 0x60, 0xe1, 0xfb, 0x09, 0x05, 0x34, 0x16, 0xd2, 0xd9,
  0xe7, 0xeb, 0xdf, 0xe5, 0x67, 0xbf, 0xf2, 0xf5, 0x7f, 0x46, 0x69, 0xd8,
  0xaa, 0x25, 0x4d, 0x77, 0x55, 0xd5, 0xf2, 0xa8, 0x12, 0x21, 0x28, 0x20,
  0xef, 0x26, 0x48, 0xf7, 0x14, 0x1c, 0xef, 0xf6, 0xd1, 0xd6, 0xe8, 0x2f,
  0xf0, 0xd6, 0x7f, 0x3b, 0xe8, 0xdd, 0xd9, 0xdf, 0x1a, 0x0f, 0x0f, 0xe7,
  0xfb, 0xe6, 0xe4, 0xe6, 0xfe, 0x2a, 0xc3, 0x1c, 0x1c, 0x0c, 0x44, 0xfd,
  0x36, 0x34, 0xd1, 0x22, 0x3d, 0x31, 0x81, 0x19, 0x0d, 0x37, 0xff, 0xfe,
  0xea, 0x15, 0x0e, 0x17, 0x08, 0x03, 0x4e, 0x17, 0x2b, 0x18, 0xf0, 0xfd,
  0x57, 0xba, 0x4b, 0x01, 0x7f, 0x1b, 0xa3, 0xe5, 0xac, 0xd0, 0xbe, 0xdf,
  0xaf, 0xd3, 0x0b, 0x3b, 0xaa, 0x3d, 0x0a, 0xbf, 0x0a, 0xb8, 0x79, 0xb3,
  0xdb, 0x68, 0x17, 0x03, 0x74, 0xdb, 0xb5, 0x89, 0x35, 0xd2, 0xf0, 0xe1,
  0x21, 0x08, 0x40, 0x6e, 0xaa, 0x82, 0x0a, 0x15, 0x17, 0x3a, 0x32, 0x0c,
  0xe8, 0xcf, 0xeb, 0xe3, 0xdf, 0x7f, 0xfe, 0xad, 0x58, 0xff, 0xbc, 0xd0,
  0x2e, 0xa8, 0x02, 0xed, 0x22, 0xf9, 0xd4, 0xd2, 0xe6, 0x9a, 0x5c, 0xea,
  0x2a, 0x72, 0x40, 0x16, 0x21, 0x81, 0xf8, 0x06, 0xbe, 0xf0, 0x13, 0x2a,
  0xcc, 0xc6, 0x33, 0x44, 0x36, 0x6d, 0x09, 0xf0, 0xfb, 0xb3, 0xd4, 0x12,
  0x6f, 0xc9, 0xdf, 0x0d, 0xeb, 0x07, 0x96, 0x0a, 0xea, 0x9b, 0xdb, 0x2f,
  0x0b, 0xe2, 0xf1, 0x09, 0x4f, 0xbd, 0xd1, 0xd6, 0xb3, 0x40, 0x43, 0xb2,
  0xf0, 0x07, 0xa0, 0x43, 0x18, 0x3c, 0x28, 0x7f, 0x40, 0xe7, 0x5a, 0xe3,
  0xe5, 0xca, 0x7e, 0xe6, 0x1b, 0x3b, 0xba, 0x17, 0xe7, 0x5d, 0x64, 0x1a,
  0xc4, 0xfa, 0x02, 0xf7, 0xe4, 0x81, 0x1f, 0xd2, 0x42, 0xcb, 0x7a, 0x20,
  0x8a, 0xd5, 0x31, 0xcf, 0x20, 0x81, 0xc9, 0x64, 0xb3, 0x34, 0xd6, 0xf5,
  0x9d, 0x01, 0x4a, 0x51, 0xa3, 0xd3, 0xb9, 0x62, 0x35, 0x32, 0xfc, 0x0c,
  0xf6, 0xbd, 0x34, 0x20, 0x91, 0xad, 0xef, 0x1d, 0x4b, 0x95, 0xc9, 0xb4,
  0xb7, 0x99, 0xe0, 0xcb, 0x03, 0xa5, 0x95, 0xa6, 0x87, 0x75, 0x7f, 0xe0,
  0x67, 0x9f, 0x0c, 0xb6, 0xd1, 0x95, 0xaf, 0x10, 0x71, 0x4c, 0xdc, 0x07,
  0xf2, 0xee, 0x3e, 0xb9, 0x21, 0x62, 0xb5, 0x2b, 0xc6, 0xf4, 0xff, 0xff,
  0x04, 0x00, 0x00, 0x00, 0x00, 0x01, 0x00, 0x00, 0x17, 0x03, 0x00, 0x00,
  0x49, 0x05, 0x00, 0x00, 0xb8, 0x0b, 0x00, 0x00, 0x77, 0xfd, 0xff, 0xff,
  0x84, 0xf9, 0xff, 0xff, 0xf1, 0xf8, 0xff, 0xff, 0x2d, 0xfc, 0xff, 0xff,
  0x25, 0x13, 0x00, 0x00, 0x5a, 0xf7, 0xff, 0xff, 0x84, 0x02, 0x00, 0x00,
  0xbc, 0xf7, 0xff, 0xff, 0x0c, 0xfa, 0xff, 0xff, 0xd7, 0xf9, 0xff, 0xff,
  0x31, 0x05, 0x00, 0x00, 0x9f, 0x06, 0x00, 0x00, 0x2f, 0xff, 0xff, 0xff,
  0x8f, 0xfd, 0xff, 0xff, 0x0c, 0xf2, 0xff, 0xff, 0x5c, 0xfa, 0xff, 0xff,
  0x88, 0x05, 0x00, 0x00, 0xa2, 0xf5, 0xff, 0xff, 0x38, 0x06, 0x00, 0x00,
  0xac, 0xfe, 0xff, 0xff, 0x86, 0x04, 0x00, 0x00, 0x67, 0x02, 0x00, 0x00,
  0xcb, 0x04, 0x00, 0x00, 0x42, 0x00, 0x00, 0x00, 0x27, 0xfe, 0xff, 0xff,
  0xc0, 0x00, 0x00, 0x00, 0x79, 0xef, 0xff, 0xff, 0xc8, 0xfd, 0xff, 0xff,
  0x3a, 0xfd, 0xff, 0xff, 0x8f, 0x09, 0x00, 0x00, 0x11, 0xff, 0xff, 0xff,
  0x0d, 0x08, 0x00, 0x00, 0x7d, 0xfd, 0xff, 0xff, 0x03, 0x09, 0x00, 0x00,
  0xcf, 0xff, 0xff, 0xff, 0x34, 0x00, 0x00, 0x00, 0xc0, 0xfd, 0xff, 0xff,
  0xf8, 0xfd, 0xff, 0xff, 0x66, 0xfc, 0xff, 0xff, 0xfd, 0x0b, 0x00, 0x00,
  0xe7, 0xfe, 0xff, 0xff, 0x7e, 0xff, 0xff, 0xff, 0x5b, 0x04, 0x00, 0x00,
  0xca, 0xfe, 0xff, 0xff, 0x79, 0x0d, 0x00, 0x00, 0xc4, 0x04, 0x00, 0x00,
  0x2c, 0xfa, 0xff, 0xff, 0x07, 0x01, 0x00, 0x00, 0xdb, 0x0c, 0x00, 0x00,
  0x37, 0xf9, 0xff, 0xff, 0x3f, 0x05, 0x00, 0x00, 0x61, 0xff, 0xff, 0xff,
  0x69, 0x03, 0x00, 0x00, 0xcc, 0x07, 0x00, 0x00, 0x5d, 0xfd, 0xff, 0xff,
  0xb3, 0xf3, 0xff, 0xff, 0x8c, 0xfc, 0xff, 0xff, 0xfe, 0x04, 0x00, 0x00,
  0x6d, 0x02, 0x00, 0x00, 0x49, 0xff, 0xff, 0xff, 0x99, 0xf6, 0xff, 0xff,
  0xd2, 0xf5, 0xff, 0xff, 0x04, 0x00, 0x00, 0x00, 0x40, 0x00, 0x00, 0x00,
  0xcc, 0xc0, 0xc4, 0xf7, 0x00, 0x09, 0xd6, 0xcb, 0xd5, 0xcb, 0xe6, 0xcb,
  0x24, 0xb3, 0xcb, 0xc2, 0xc8, 0x05, 0x13, 0xce, 0x6a, 0xa9, 0xc9, 0xc5,
  0xc1, 0xe1, 0xc6, 0xb8, 0xdc, 0x7f, 0x1c, 0xce, 0xc2, 0xe0, 0xb7, 0x15,
  0xb1, 0xdb, 0xde, 0xd3, 0x0d, 0x1d, 0xab, 0xca, 0xe5, 0xd3, 0xc4, 0xbc,
  0xb7, 0xc3, 0xd2, 0xd4, 0xd3, 0xc6, 0xd8, 0xc4, 0xb4, 0xe6, 0xd9, 0xf5,
  0xcf, 0xce, 0xe5, 0xe8, 0x1e, 0xf6, 0xff, 0xff, 0x04, 0x00, 0x00, 0x00,
  0x40, 0x00, 0x00, 0x00, 0xf7, 0xf8, 0xc5, 0x0c, 0x25, 0x2f, 0x0b, 0x80,
  0x2d, 0x01, 0x21, 0x1c, 0x43, 0xed, 0xda, 0x04, 0xff, 0x3c, 0x1c, 0xed,
  0x4b, 0xed, 0x06, 0x08, 0xee, 0xea, 0x11, 0x0c, 0x05, 0x57, 0x0a, 0x2f,
  0xf1, 0xfa, 0xdf, 0x1c, 0xd8, 0xec, 0xf6, 0x17, 0x1e, 0x25, 0xc2, 0x1b,
  0x0a, 0xf2, 0xfd, 0xe0, 0xe2, 0x16, 0x04, 0xad, 0x33, 0x01, 0x07, 0xe5,
  0xf8, 0x23, 0x27, 0x06, 0xe9, 0x1a, 0x24, 0x21, 0x6a, 0xf6, 0xff, 0xff,
  0x04, 0x00, 0x00, 0x00, 0x00, 0x08, 0x00, 0x00, 0x40, 0xfb, 0x29, 0xeb,
  0x2b, 0xdf, 0x48, 0xfb, 0xe2, 0xe4, 0x73, 0x31, 0x19, 0x05, 0x38, 0x04,
  0x33, 0x27, 0xce, 0x0b, 0xcf, 0x3a, 0xf3, 0x52, 0x30, 0xdd, 0xd0, 0xcb,
  0x1d, 0x01, 0xff, 0x1c, 0xef, 0xbe, 0x20, 0xd6, 0x19, 0x5b, 0x19, 0xf8,
  0x0e, 0xef, 0x41, 0x20, 0xf3, 0x33, 0x06, 0x06, 0x1d, 0xd6, 0xff, 0x2b,
  0x81, 0x1f, 0xfe, 0xf3, 0xe4, 0xc4, 0x47, 0x0f, 0xc0, 0xc5, 0x9f, 0xd7,
  0xaf, 0x46, 0x8c, 0xe0, 0x81, 0x5f, 0x14, 0xc8, 0x35, 0x81, 0x34, 0xef,
  0xfb, 0x9b, 0x8e, 0xd2, 0x97, 0xa0, 0xb0, 0x16, 0xd1, 0x87, 0x2a, 0xc7,
  0xaa, 0x82, 0xd1, 0xb1, 0xb3, 0xa3, 0x39, 0xd6, 0xa5, 0xe1, 0x31, 0x93,
  0xf2, 0x1a, 0x57, 0x23, 0xf9, 0xe7, 0x84, 0xcf, 0xac, 0xc4, 0x57, 0xc1,
  0x24, 0xa9, 0x8c, 0xd5, 0x09, 0x24, 0xf6, 0xb3, 0x0d, 0x57, 0x0a, 0x2e,
  0x20, 0x1e, 0x17, 0x2c, 0xd5, 0x28, 0xdd, 0xf7, 0x81, 0x48, 0x49, 0xb8,
  0x32, 0x12, 0x1d, 0xd5, 0x04, 0xc1, 0xe8, 0x4f, 0x29, 0x37, 0x94, 0x00,
  0xe1, 0xd3, 0xe9, 0xc5, 0x3f, 0x4d, 0x48, 0x21, 0xfc, 0xdf, 0x98, 0xe6,
  0x22, 0x32, 0x9b, 0xda, 0x3d, 0xfc, 0x1b, 0x05, 0x4e, 0xa3, 0xdd, 0x31,
  0x4e, 0xd2, 0x46, 0x25, 0x5d, 0xd0, 0xe9, 0xca, 0x0d, 0xc0, 0x07, 0x17,
  0xb7, 0x24, 0xfe, 0x10, 0x36, 0xe7, 0xf6, 0x3e, 0x27, 0xf8, 0xd9, 0xed,
  0xc1, 0xaa, 0x41, 0xfe, 0x0d, 0x45, 0x30, 0x18, 0xe1, 0xc0, 0xc1, 0x9d,
  0xcb, 0x1f, 0x1e, 0xf8, 0xfb, 0x4b, 0xd8, 0xef, 0x91, 0x29, 0x08, 0x34,
  0x28, 0xfd, 0xa4, 0x3e, 0xbf, 0xe4, 0x4b, 0xf2, 0x9e, 0xc1, 0xe5, 0xd4,
  0xf8, 0xaf, 0xdd, 0x05, 0xdb, 0x1b, 0x2a, 0xc3, 0xa8, 0x88, 0xc5, 0x10,
  0xe9, 0x2a, 0x28, 0x17, 0x9b, 0x46, 0xeb, 0x01, 0x49, 0x30, 0x16, 0x81,
  0x4d, 0xdd, 0xf4, 0x54, 0xcf, 0x00, 0xef, 0x13, 0xc6, 0x4b, 0x38, 0xd2,
  0x4a, 0xec, 0x11, 0x43, 0x6d, 0xd8, 0xce, 0x2d, 0xb1, 0x12, 0x39, 0x0c,
  0x28, 0xe9, 0x24, 0x0a, 0xde, 0xa0, 0x08, 0x03, 0x27, 0xc2, 0xed, 0xf7,
  0xd4, 0xfa, 0x04, 0xb5, 0xd4, 0x39, 0x1d, 0x35, 0x30, 0xe2, 0xe5, 0x4b,
  0x44, 0xf6, 0x14, 0xed, 0x3d, 0xd5, 0x16, 0x29, 0xb8, 0xcd, 0x81, 0xb7,
  0x30, 0x46, 0xeb, 0xf2, 0xee, 0x96, 0x33, 0x34, 0xfa, 0x1f, 0x48, 0xc0,
  0x61, 0xf9, 0x34, 0x14, 0x03, 0xc0, 0x1f, 0xee, 0xfb, 0xba, 0xeb, 0x4c,
  0xb8, 0xfe, 0x3d, 0x81, 0x21, 0xcb, 0xdb, 0xa4, 0xd3, 0x90, 0x19, 0x82,
  0x68, 0x28, 0xc7, 0xc4, 0xb1, 0x4b, 0xf5, 0xd5, 0x7f, 0x39, 0x51, 0x24,
  0x2c, 0x6d, 0x34, 0xa6, 0xc2, 0xd1, 0xef, 0xfa, 0x9b, 0xc3, 0xbc, 0x6c,
  0xc8, 0x24, 0xe7, 0x07, 0x2a, 0x3c, 0xa2, 0x47, 0x53, 0xc9, 0xbd, 0x9b,
  0xf1, 0x13, 0x38, 0xe4, 0xb1, 0x08, 0x13, 0x29, 0x09, 0xde, 0x24, 0xff,
  0xb8, 0xf6, 0x00, 0xcf, 0xf7, 0x30, 0xe6, 0xcf, 0xce, 0x81, 0xf4, 0x0e,
  0x1d, 0xe1, 0x19, 0x47, 0xf9, 0x30, 0x39, 0x0b, 0xb5, 0x04, 0xf7, 0xff,
  0x2e, 0xa4, 0xce, 0x24, 0x38, 0xc0, 0x9b, 0xd7, 0xfa, 0xed, 0x3e, 0xc8,
  0x0a, 0x0d, 0xe8, 0x0a, 0x42, 0xbc, 0xf2, 0x1c, 0xb8, 0xd1, 0x0e, 0xe3,
  0x54, 0xe8, 0x58, 0x21, 0xc8, 0x5a, 0x68, 0xbe, 0xdc, 0xf1, 0xbc, 0xc0,
  0xfe, 0xde, 0x14, 0x18, 0xde, 0xfe, 0xf1, 0x26, 0xb7, 0xc5, 0xef, 0x09,
  0x44, 0x26, 0x21, 0x48, 0x3a, 0x03, 0xf5, 0xf4, 0x55, 0x03, 0xce, 0xe2,
  0x2d, 0xfa, 0x7f, 0xce, 0xc8, 0xb3, 0x29, 0x15, 0xea, 0xfc, 0xef, 0x45,
  0xf4, 0xdd, 0xd7, 0xf1, 0x1a, 0xc8, 0x4f, 0xd0, 0x40, 0x55, 0x0c, 0x5d,
  0xda, 0x31, 0xd2, 0x58, 0xdb, 0xd6, 0x0f, 0xf6, 0x81, 0x3d, 0x75, 0x1c,
  0x21, 0x26, 0x44, 0x8f, 0xda, 0x6d, 0xee, 0x7e, 0x46, 0xe2, 0xa9, 0xc7,
  0x96, 0x49, 0x6c, 0x06, 0xd2, 0xf9, 0xb4, 0x73, 0x47, 0xb1, 0xea, 0x8a,
  0xf3, 0x21, 0x25, 0xe7, 0x56, 0x72, 0x77, 0xfe, 0x0c, 0xb6, 0xd5, 0x12,
  0x4a, 0x60, 0x3b, 0xbe, 0x05, 0x0c, 0xc2, 0x69, 0xd6, 0x6e, 0x99, 0x39,
  0x3c, 0x50, 0xb0, 0xd8, 0xb4, 0x94, 0x8c, 0xe8, 0x2c, 0xd4, 0x2c, 0xfb,
  0xeb, 0x36, 0x21, 0x3e, 0xe9, 0x43, 0xb4, 0x38, 0xb6, 0xf6, 0x04, 0xd8,
  0xdf, 0xd3, 0x54, 0xd9, 0xf7, 0xc6, 0x34, 0xe8, 0xcd, 0x2d, 0x3d, 0xcb,
  0x40, 0x08, 0x12, 0x20, 0x4b, 0x3f, 0x26, 0xfa, 0x42, 0xe0, 0xe3, 0xbb,
  0x20, 0xc0, 0xfc, 0x08, 0xd5, 0x03, 0x0d, 0xfb, 0xf6, 0x0f, 0xc4, 0x81,
  0xce, 0x34, 0x04, 0xe0, 0x1a, 0xc5, 0xe1, 0xbe, 0x11, 0x15, 0xf8, 0xd1,
  0xfa, 0x3c, 0x91, 0xce, 0xe0, 0xbe, 0x1c, 0x04, 0xf7, 0xb9, 0xed, 0xaa,
  0xb9, 0x9d, 0xec, 0xdc, 0x16, 0x45, 0x2f, 0x0a, 0x00, 0x46, 0xb1, 0xb7,
  0xd0, 0x0d, 0xc5, 0xb8, 0x3b, 0xff, 0x0e, 0x0e, 0x2f, 0x01, 0x40, 0x3d,
  0x11, 0x08, 0xae, 0x3c, 0x53, 0xe6, 0xfc, 0x81, 0x0e, 0x2a, 0x39, 0xee,
  0xf9, 0xb7, 0x5b, 0xe4, 0x39, 0xa1, 0xd0, 0xec, 0x04, 0x36, 0xe1, 0x1c,
  0x56, 0x10, 0xd5, 0x2c, 0x55, 0x06, 0xff, 0xca, 0x37, 0xda, 0x2d, 0x42,
  0x90, 0xb5, 0x9b, 0xe3, 0x33, 0x76, 0xff, 0x16, 0xff, 0xae, 0xeb, 0x32,
  0x9c, 0xec, 0x2a, 0xb3, 0xfc, 0x07, 0xf7, 0x44, 0x61, 0xc2, 0xce, 0xe1,
  0x53, 0x41, 0x34, 0xee, 0x1d, 0xb8, 0xd7, 0x08, 0xbd, 0x24, 0xee, 0x06,
  0xb8, 0x7f, 0x06, 0x2f, 0x60, 0xe8, 0xce, 0xf4, 0x3e, 0x45, 0x62, 0xf2,
  0xea, 0xd4, 0xcf, 0x4f, 0xd7, 0x58, 0xde, 0xd5, 0x93, 0x03, 0x78, 0xb7,
  0xd6, 0x6f, 0xcd, 0x49, 0xf1, 0xb1, 0xf0, 0xe0, 0x22, 0x3f, 0x1d, 0x49,
  0x1d, 0x81, 0x31, 0xce, 0xf9, 0x10, 0x0c, 0x32, 0x30, 0x2b, 0xe5, 0xc8,
  0xd8, 0x41, 0x19, 0xac, 0x01, 0xed, 0xbc, 0xe7, 0xd7, 0xd2, 0x26, 0xe9,
  0xb7, 0xe1, 0x23, 0xa2, 0xeb, 0x6e, 0xda, 0xda, 0x2d, 0xa1, 0x52, 0x42,
  0x5d, 0x5c, 0xe9, 0x5b, 0x5c, 0x76, 0xf5, 0xb9, 0x30, 0xf2, 0xb8, 0x18,
  0xce, 0x38, 0xe3, 0x81, 0xdf, 0x0f, 0xd8, 0xcf, 0x16, 0x07, 0xaf, 0xc0,
  0x05, 0xe5, 0x08, 0xc4, 0xc7, 0xea, 0xb6, 0xf3, 0x0a, 0xfe, 0xd1, 0x33,
  0xd0, 0x4a, 0x15, 0x28, 0x3f, 0x0c, 0x15, 0x4a, 0xa2, 0xfa, 0xed, 0x06,
  0xdd, 0xe7, 0xde, 0xe8, 0x1d, 0x17, 0x30, 0xc7, 0xb9, 0xb3, 0xe2, 0x25,
  0x24, 0xc1, 0xf7, 0x09, 0xd9, 0x9f, 0xeb, 0xc5, 0x34, 0x23, 0x83, 0x39,
  0x3c, 0xdf, 0x17, 0x06, 0xf8, 0x28, 0x2f, 0xf9, 0xdb, 0xaf, 0xc6, 0xf4,
  0xfe, 0xc4, 0x45, 0x1d, 0xd6, 0xf3, 0xc2, 0x24, 0xf8, 0xcc, 0x01, 0xac,
  0xf4, 0x09, 0x02, 0xfe, 0xfe, 0x0c, 0xb6, 0x3b, 0xd0, 0xc5, 0x22, 0xfe,
  0x23, 0xc1, 0x09, 0xea, 0x26, 0x2c, 0xfd, 0xe5, 0x43, 0x81, 0x0f, 0xde,
  0xf4, 0xf9, 0xbe, 0x33, 0x03, 0xc2, 0xf8, 0xbe, 0xf7, 0xa2, 0xef, 0x16,
  0xfc, 0x46, 0x45, 0xdd, 0xe3, 0xe0, 0x1e, 0x67, 0xc7, 0x7f, 0x04, 0x08,
  0x53, 0xfe, 0xe7, 0x1f, 0xaa, 0x14, 0x4f, 0x15, 0x27, 0x4d, 0x2d, 0x9d,
  0xc5, 0x1f, 0xbf, 0xcf, 0xd9, 0x05, 0xfc, 0x75, 0xa1, 0x2a, 0x0c, 0x3f,
  0xe0, 0x1b, 0x10, 0x73, 0xab, 0xfe, 0xfd, 0x7c, 0xc8, 0x06, 0xe2, 0xb3,
  0x19, 0x29, 0x13, 0xc1, 0xe0, 0x24, 0x3a, 0xfb, 0x90, 0xe7, 0xf4, 0xe3,
  0x53, 0xb6, 0xaf, 0xe3, 0x43, 0xfb, 0x55, 0x6c, 0x5d, 0x4f, 0x14, 0xbe,
  0x44, 0x43, 0xda, 0x61, 0x0d, 0xe3, 0xf4, 0x1f, 0xa9, 0x0f, 0xa6, 0xe0,
  0xf0, 0x40, 0x7f, 0x18, 0x14, 0x03, 0x36, 0xfa, 0x14, 0xfe, 0xe7, 0x0b,
  0x51, 0x26, 0x47, 0x19, 0x17, 0x2f, 0xe9, 0xbd, 0xdb, 0xc6, 0xf0, 0xcf,
  0x55, 0xb6, 0x05, 0x28, 0xd9, 0xd7, 0x3c, 0xa0, 0x66, 0x0a, 0xd1, 0xff,
  0x34, 0xd7, 0x06, 0x17, 0x31, 0xf9, 0x33, 0xfd, 0xd1, 0xc6, 0x3a, 0xe1,
  0xf4, 0x39, 0xe2, 0xe9, 0xd0, 0xcc, 0xfd, 0x56, 0x42, 0x6a, 0x46, 0x85,
  0xf1, 0x38, 0x07, 0x42, 0x00, 0xfa, 0xda, 0xe4, 0xe3, 0x3c, 0x38, 0x93,
  0x9a, 0x5c, 0xba, 0xb9, 0xfd, 0xfa, 0xaa, 0xef, 0x0e, 0xed, 0x9b, 0xbd,
  0xc4, 0x8e, 0xfe, 0x2a, 0x3a, 0xe9, 0x44, 0xe1, 0x00, 0xa8, 0xb4, 0x39,
  0xe8, 0xb0, 0x13, 0x29, 0xbb, 0x9d, 0x10, 0x89, 0xcf, 0xaf, 0x4e, 0x37,
  0xa8, 0x81, 0x1a, 0x47, 0x51, 0x3f, 0xbf, 0x40, 0x58, 0x19, 0x34, 0xc5,
  0xbc, 0xe1, 0xad, 0x23, 0xab, 0x49, 0x47, 0xde, 0x18, 0x6a, 0xc4, 0x64,
  0x17, 0xcd, 0x25, 0x2b, 0xb9, 0x31, 0x4b, 0x37, 0x47, 0x60, 0xe9, 0xd3,
  0x5a, 0xcf, 0xd7, 0xec, 0x3b, 0x2e, 0xb9, 0xd8, 0xbd, 0x47, 0xf4, 0x7f,
  0xc1, 0x2d, 0xdf, 0x2e, 0x4c, 0xb4, 0xda, 0xb4, 0xca, 0xbc, 0x63, 0x36,
  0xb7, 0xfc, 0x3d, 0x52, 0xde, 0xbd, 0x1a, 0xd9, 0x14, 0xae, 0xa9, 0x31,
  0xf2, 0xbc, 0xef, 0x56, 0xfc, 0x8d, 0x5f, 0xe3, 0xaf, 0x46, 0x39, 0xe7,
  0x6e, 0x22, 0x2a, 0xcd, 0x6d, 0x97, 0xf7, 0x5b, 0xc6, 0x4f, 0xc5, 0xe8,
  0x59, 0xcb, 0xea, 0x9d, 0x0c, 0x81, 0x0f, 0xb5, 0x4c, 0xa5, 0xb9, 0xb3,
  0x24, 0x26, 0x20, 0x50, 0xef, 0xc2, 0x40, 0x0c, 0xf1, 0x31, 0xde, 0x58,
  0x33, 0x3f, 0x9a, 0x21, 0x37, 0xc1, 0x47, 0xe8, 0xf0, 0xa7, 0xf8, 0x02,
  0x2b, 0xf6, 0x03, 0xd4, 0x0b, 0xfc, 0x56, 0xc7, 0xd9, 0xe1, 0x5d, 0x20,
  0xa6, 0x58, 0x13, 0x4b, 0x40, 0x4f, 0xce, 0x30, 0x94, 0xd9, 0x6e, 0x5d,
  0x8e, 0xb1, 0xf2, 0x7f, 0x45, 0x41, 0x37, 0xf2, 0x00, 0x3d, 0x33, 0x00,
  0x0c, 0x10, 0xe4, 0x16, 0xe2, 0xbc, 0x67, 0xd1, 0xbf, 0x48, 0x37, 0xea,
  0x49, 0xd8, 0x15, 0x15, 0x90, 0xe1, 0x30, 0xe1, 0xf6, 0xc7, 0xc6, 0x4f,
  0x39, 0xcd, 0x1e, 0x70, 0x07, 0xfe, 0x1b, 0x9c, 0xee, 0xc2, 0x07, 0xd4,
  0xef, 0xfe, 0xa2, 0x19, 0xe3, 0xf1, 0xdb, 0xa1, 0x99, 0x63, 0xdd, 0x4d,
  0x02, 0x22, 0xe3, 0x3d, 0x2a, 0xa9, 0x3f, 0x27, 0xe1, 0x05, 0xf8, 0xc5,
  0x1f, 0x04, 0xe4, 0xec, 0xc3, 0x19, 0x1b, 0x92, 0x69, 0x21, 0x32, 0x31,
  0xbf, 0x4e, 0xd8, 0xf6, 0x57, 0x8a, 0xa4, 0x28, 0xe2, 0x13, 0x81, 0xd6,
  0x2a, 0xcc, 0x22, 0xba, 0x97, 0xcd, 0x00, 0xd5, 0x26, 0xf7, 0x8a, 0x2b,
  0x9e, 0x14, 0x9b, 0xa6, 0x8d, 0x48, 0xf1, 0x14, 0x2e, 0x2d, 0x48, 0xdd,
  0x96, 0x2a, 0x03, 0x10, 0x24, 0x29, 0xa7, 0x46, 0xb2, 0xa8, 0x31, 0x3a,
  0xaf, 0x95, 0xd8, 0x47, 0x45, 0x2d, 0x81, 0xec, 0x10, 0xf3, 0x0e, 0x0c,
  0x08, 0x3b, 0x09, 0x46, 0xde, 0x9e, 0xf7, 0xea, 0xc6, 0xef, 0xef, 0x9d,
  0xe7, 0xd7, 0x23, 0x02, 0x04, 0x20, 0x9b, 0x01, 0xe4, 0xb9, 0x3d, 0x99,
  0xbf, 0xb6, 0xfe, 0xc5, 0x54, 0xde, 0x25, 0x56, 0x0e, 0x87, 0xe5, 0x85,
  0x03, 0xab, 0xce, 0x81, 0x6a, 0xcb, 0x10, 0x87, 0x64, 0xcb, 0xe0, 0xa8,
  0x38, 0xb5, 0xea, 0xc1, 0xa2, 0x3d, 0x91, 0xdc, 0xa6, 0xd4, 0xfa, 0xa7,
  0xf7, 0xbd, 0xb1, 0x84, 0x9c, 0x9b, 0xd3, 0x55, 0xf9, 0xd2, 0xa7, 0x54,
  0xe2, 0xe4, 0x1b, 0xb1, 0xcf, 0xe0, 0xa5, 0xf7, 0x85, 0x5a, 0x37, 0x1d,
  0xb0, 0x31, 0xb7, 0x1e, 0xa0, 0xa4, 0x40, 0x45, 0xe9, 0x37, 0xf5, 0x81,
  0xd2, 0x38, 0x2f, 0x45, 0xca, 0x28, 0xdf, 0x9f, 0x84, 0xdf, 0x82, 0xe7,
  0xde, 0xda, 0xf7, 0xcc, 0xbd, 0xa0, 0xa7, 0xd6, 0x34, 0x2b, 0x2e, 0xd2,
  0x24, 0xfb, 0x0f, 0x9e, 0x4d, 0xae, 0xdb, 0xb7, 0x97, 0xc4, 0x37, 0x3c,
  0xca, 0xba, 0xcc, 0x14, 0xef, 0x8c, 0xaf, 0x3d, 0xdf, 0xdb, 0x17, 0x0a,
  0xfb, 0xd4, 0x8f, 0x29, 0xed, 0x22, 0x07, 0xa3, 0x14, 0x93, 0xcd, 0x14,
  0x53, 0x36, 0x3d, 0xb7, 0x33, 0x00, 0x0a, 0xfb, 0x19, 0xeb, 0xba, 0x21,
  0x09, 0xe6, 0xe5, 0x00, 0xe1, 0x54, 0x8f, 0x0e, 0xf3, 0x3d, 0xae, 0x25,
  0xd0, 0x33, 0xbf, 0xfd, 0x29, 0x20, 0x96, 0x46, 0xfe, 0xaf, 0x2b, 0x45,
  0x09, 0x28, 0x1b, 0xd9, 0x30, 0x39, 0x0c, 0xec, 0xc8, 0x37, 0x13, 0x02,
  0x81, 0x52, 0x3f, 0xf5, 0xcf, 0xd6, 0xfb, 0x21, 0xcd, 0x15, 0x04, 0xf8,
  0x00, 0xf5, 0x60, 0x36, 0x24, 0x20, 0x14, 0xb0, 0xc7, 0xe5, 0xb6, 0xbc,
  0x59, 0x90, 0x32, 0xc7, 0xec, 0xa1, 0xba, 0xb7, 0xff, 0x1c, 0xae, 0xb7,
  0x30, 0xb7, 0xc9, 0x0c, 0xe4, 0x47, 0x40, 0xdc, 0x3f, 0xd9, 0x33, 0x25,
  0x3e, 0xc2, 0x50, 0x39, 0xca, 0x0d, 0x81, 0x2f, 0x3b, 0xe1, 0x0a, 0xaa,
  0xcf, 0x10, 0xd7, 0xda, 0xee, 0xc1, 0x0b, 0x36, 0xeb, 0x3d, 0x4b, 0xeb,
  0x3a, 0xe7, 0x97, 0x5e, 0xd9, 0xe8, 0x3e, 0x32, 0x52, 0xac, 0xaa, 0x7d,
  0xa7, 0x2a, 0x9d, 0x2e, 0xcd, 0x18, 0x81, 0xfa, 0xad, 0x4b, 0x2e, 0x3b,
  0xf4, 0x03, 0x08, 0x48, 0xe2, 0xed, 0x9f, 0x58, 0xb5, 0x99, 0x1a, 0x8f,
  0xa5, 0x1a, 0xa2, 0x8b, 0x6e, 0x90, 0x30, 0xe6, 0x6c, 0x49, 0x60, 0x00,
  0xe9, 0x8e, 0x6c, 0xb4, 0xc5, 0xf7, 0x58, 0x00, 0xb0, 0x65, 0x0b, 0x1b,
  0x1f, 0x6a, 0xf4, 0xc1, 0x66, 0xe8, 0xc6, 0xad, 0xbd, 0x7a, 0x00, 0xcf,
  0x21, 0x58, 0x31, 0x34, 0x94, 0xfa, 0x1b, 0xe3, 0x0b, 0xfa, 0x2e, 0xb9,
  0xa2, 0x58, 0x41, 0xdf, 0x57, 0xaa, 0xc1, 0x27, 0x2b, 0xc3, 0xb5, 0x4f,
  0xba, 0xab, 0x56, 0x7f, 0x2f, 0xea, 0x18, 0xe8, 0x51, 0xc3, 0xe5, 0xae,
  0xea, 0x2c, 0xa1, 0xf5, 0x1c, 0xdc, 0x1a, 0x9a, 0x5a, 0xfd, 0x06, 0x24,
  0xf4, 0x1e, 0xfb, 0x91, 0x31, 0x1f, 0xd7, 0xec, 0xa7, 0xc9, 0x21, 0xfd,
  0x40, 0x50, 0xdc, 0x3e, 0x13, 0x4d, 0x0c, 0x20, 0x17, 0xe9, 0xda, 0x62,
  0x19, 0x37, 0xba, 0xd6, 0x09, 0x0e, 0x71, 0xff, 0xfe, 0x2e, 0x46, 0x0d,
  0x35, 0x25, 0xb9, 0x4a, 0x3e, 0x06, 0x23, 0x06, 0x28, 0x0b, 0x22, 0xe9,
  0xf4, 0xf7, 0x31, 0x01, 0xdc, 0xc6, 0xcd, 0xaa, 0xce, 0xe2, 0x7f, 0x2a,
  0xdc, 0xca, 0x30, 0xfe, 0xf9, 0xdd, 0xe8, 0xfb, 0xd0, 0xe4, 0x0f, 0x07,
  0x0e, 0xe8, 0x38, 0xcc, 0xb6, 0xd3, 0xea, 0xd1, 0xae, 0xd8, 0xbe, 0xd2,
  0xfb, 0x03, 0xf4, 0xb0, 0xd0, 0x0e, 0xde, 0x39, 0xd9, 0xa8, 0xa7, 0xdd,
  0x08, 0xc4, 0xa4, 0xba, 0xe0, 0x08, 0xe1, 0x0c, 0x43, 0xd3, 0xd5, 0x4f,
  0x0e, 0x51, 0x81, 0xe1, 0x47, 0x29, 0x71, 0x52, 0x35, 0x8d, 0x07, 0xb8,
  0xef, 0x37, 0xe0, 0xc9, 0x25, 0x45, 0x96, 0x46, 0xf6, 0xf9, 0xd4, 0xfd,
  0x1f, 0x7b, 0x4b, 0x31, 0xab, 0xff, 0x8a, 0x05, 0xd3, 0x23, 0xce, 0xf6,
  0xe3, 0x51, 0x50, 0xb4, 0xc9, 0x24, 0xe8, 0xca, 0xfd, 0x12, 0x7f, 0x3d,
  0xfe, 0xc1, 0x0d, 0xb3, 0xeb, 0xe8, 0x13, 0xaf, 0x35, 0xf3, 0xda, 0xe9,
  0xfb, 0xe7, 0xeb, 0xc6, 0x3f, 0x46, 0x16, 0x1f, 0x17, 0x06, 0xb6, 0x0d,
  0x16, 0xfd, 0x30, 0xf1, 0x36, 0x28, 0xfa, 0xaa, 0xb7, 0x3c, 0x52, 0x21,
  0x1f, 0xee, 0x23, 0x24, 0xcb, 0x3f, 0xa3, 0x5b, 0x12, 0xe4, 0x04, 0x0f,
  0xea, 0xf4, 0x58, 0xda, 0x76, 0xfe, 0xff, 0xff, 0x04, 0x00, 0x00, 0x00,
  0x80, 0x00, 0x00, 0x00, 0xad, 0x01, 0x00, 0x00, 0x3a, 0xfc, 0xff, 0xff,
  0xff, 0x01, 0x00, 0x00, 0xf3, 0x03, 0x00, 0x00, 0x78, 0x05, 0x00, 0x00,
  0x8f, 0x02, 0x00, 0x00, 0x87, 0xfe, 0xff, 0xff, 0xcf, 0x05, 0x00, 0x00,
  0xfe, 0x04, 0x00, 0x00, 0x5b, 0x02, 0x00, 0x00, 0x79, 0x01, 0x00, 0x00,
  0xfb, 0x06, 0x00, 0x00, 0x43, 0x06, 0x00, 0x00, 0xc0, 0x03, 0x00, 0x00,
  0x08, 0x01, 0x00, 0x00, 0xb3, 0x06, 0x00, 0x00, 0x71, 0x04, 0x00, 0x00,
  0x6e, 0xfa, 0xff, 0xff, 0xce, 0x03, 0x00, 0x00, 0x36, 0x04, 0x00, 0x00,
  0x6e, 0x06, 0x00, 0x00, 0x80, 0xff, 0xff, 0xff, 0xba, 0xfa, 0xff, 0xff,
  0x6c, 0xfc, 0xff, 0xff, 0xb4, 0xfd, 0xff, 0xff, 0x3e, 0x02, 0x00, 0x00,
  0x0d, 0x05, 0x00, 0x00, 0x4b, 0x02, 0x00, 0x00, 0x97, 0x03, 0x00, 0x00,
  0x23, 0x05, 0x00, 0x00, 0x80, 0x00, 0x00, 0x00, 0x59, 0x04, 0x00, 0x00,
  0x02, 0xff, 0xff, 0xff, 0x04, 0x00, 0x00, 0x00, 0x40, 0x00, 0x00, 0x00,
  0x15, 0x73, 0x4d, 0xaf, 0x20, 0x31, 0x38, 0x1d, 0x25, 0x42, 0xc5, 0x2e,
  0x23, 0xac, 0x29, 0xee, 0x18, 0xda, 0x33, 0x4b, 0x10, 0x3b, 0xd5, 0x5f,
  0xa6, 0xe0, 0x81, 0x2c, 0x41, 0x1c, 0xc9, 0xef, 0xe4, 0x35, 0x23, 0xfc,
  0xf3, 0x05, 0x34, 0xd9, 0xcd, 0x81, 0x0d, 0xb9, 0xc7, 0x0f, 0x0d, 0xca,
  0xf3, 0x3a, 0xd5, 0xf4, 0xbe, 0x3f, 0x29, 0x3c, 0x17, 0xca, 0xc7, 0x23,
  0xd4, 0xc2, 0xd8, 0xd5, 0x4e, 0xff, 0xff, 0xff, 0x04, 0x00, 0x00, 0x00,
  0x08, 0x00, 0x00, 0x00, 0xc5, 0x22, 0x00, 0x00, 0x56, 0xe9, 0xff, 0xff,
  0x62, 0xff, 0xff, 0xff, 0x04, 0x00, 0x00, 0x00, 0x04, 0x00, 0x00, 0x00,
  0x01, 0x00, 0x00, 0x00, 0x72, 0xff, 0xff, 0xff, 0x04, 0x00, 0x00, 0x00,
  0x0c, 0x00, 0x00, 0x00, 0x01, 0x00, 0x00, 0x00, 0x1e, 0x00, 0x00, 0x00,
  0x40, 0x00, 0x00, 0x00, 0x8a, 0xff, 0xff, 0xff, 0x04, 0x00, 0x00, 0x00,
  0x10, 0x00, 0x00, 0x00, 0x01, 0x00, 0x00, 0x00, 0x01, 0x00, 0x00, 0x00,
  0x20, 0x00, 0x00, 0x00, 0x20, 0x00, 0x00, 0x00, 0xa6, 0xff, 0xff, 0xff,
  0x04, 0x00, 0x00, 0x00, 0x18, 0x00, 0x00, 0x00, 0x00, 0x00, 0x00, 0x00,
  0x00, 0x00, 0x00, 0x00, 0x02, 0x00, 0x00, 0x00, 0x00, 0x00, 0x00, 0x00,
  0x00, 0x00, 0x00, 0x00, 0x00, 0x00, 0x00, 0x00, 0xca, 0xff, 0xff, 0xff,
  0x04, 0x00, 0x00, 0x00, 0x0c, 0x00, 0x00, 0x00, 0x01, 0x00, 0x00, 0x00,
  0x1e, 0x00, 0x00, 0x00, 0x20, 0x00, 0x00, 0x00, 0xe2, 0xff, 0xff, 0xff,
  0x04, 0x00, 0x00, 0x00, 0x10, 0x00, 0x00, 0x00, 0x01, 0x00, 0x00, 0x00,
  0x01, 0x00, 0x00, 0x00, 0x22, 0x00, 0x00, 0x00, 0x0e, 0x00, 0x00, 0x00,
  0x00, 0x00, 0x06, 0x00, 0x08, 0x00, 0x04, 0x00, 0x06, 0x00, 0x00, 0x00,
  0x04, 0x00, 0x00, 0x00, 0x18, 0x00, 0x00, 0x00, 0x00, 0x00, 0x00, 0x00,
  0x00, 0x00, 0x00, 0x00, 0x04, 0x00, 0x00, 0x00, 0x00, 0x00, 0x00, 0x00,
  0x00, 0x00, 0x00, 0x00, 0x00, 0x00, 0x00, 0x00, 0xa0, 0xc5, 0xff, 0xff,
  0xa4, 0xc5, 0xff, 0xff, 0x0f, 0x00, 0x00, 0x00, 0x4d, 0x4c, 0x49, 0x52,
  0x20, 0x43, 0x6f, 0x6e, 0x76, 0x65, 0x72, 0x74, 0x65, 0x64, 0x2e, 0x00,
  0x01, 0x00, 0x00, 0x00, 0x14, 0x00, 0x00, 0x00, 0x00, 0x00, 0x0e, 0x00,
  0x18, 0x00, 0x14, 0x00, 0x10, 0x00, 0x0c, 0x00, 0x08, 0x00, 0x04, 0x00,
  0x0e, 0x00, 0x00, 0x00, 0x14, 0x00, 0x00, 0x00, 0x1c, 0x00, 0x00, 0x00,
  0x94, 0x04, 0x00, 0x00, 0x98, 0x04, 0x00, 0x00, 0x9c, 0x04, 0x00, 0x00,
  0x04, 0x00, 0x00, 0x00, 0x6d, 0x61, 0x69, 0x6e, 0x00, 0x00, 0x00, 0x00,
  0x13, 0x00, 0x00, 0x00, 0x4c, 0x04, 0x00, 0x00, 0x14, 0x04, 0x00, 0x00,
  0xb4, 0x03, 0x00, 0x00, 0x50, 0x03, 0x00, 0x00, 0x1c, 0x03, 0x00, 0x00,
  0xe8, 0x02, 0x00, 0x00, 0xc0, 0x02, 0x00, 0x00, 0x74, 0x02, 0x00, 0x00,
  0x34, 0x02, 0x00, 0x00, 0x0c, 0x02, 0x00, 0x00, 0xc4, 0x01, 0x00, 0x00,
  0x7c, 0x01, 0x00, 0x00, 0x48, 0x01, 0x00, 0x00, 0x14, 0x01, 0x00, 0x00,
  0xd4, 0x00, 0x00, 0x00, 0xac, 0x00, 0x00, 0x00, 0x78, 0x00, 0x00, 0x00,
  0x3c, 0x00, 0x00, 0x00, 0x04, 0x00, 0x00, 0x00, 0x9e, 0xfc, 0xff, 0xff,
  0x14, 0x00, 0x00, 0x00, 0x00, 0x00, 0x00, 0x08, 0x10, 0x00, 0x00, 0x00,
  0x14, 0x00, 0x00, 0x00, 0x07, 0x00, 0x00, 0x00, 0x60, 0xc6, 0xff, 0xff,
  0x01, 0x00, 0x00, 0x00, 0x2c, 0x00, 0x00, 0x00, 0x03, 0x00, 0x00, 0x00,
  0x2b, 0x00, 0x00, 0x00, 0x09, 0x00, 0x00, 0x00, 0x08, 0x00, 0x00, 0x00,
  0xd2, 0xfc, 0xff, 0xff, 0x14, 0x00, 0x00, 0x00, 0x00, 0x00, 0x00, 0x08,
  0x14, 0x00, 0x00, 0x00, 0x18, 0x00, 0x00, 0x00, 0x07, 0x00, 0x00, 0x00,
  0x72, 0xff, 0xff, 0xff, 0x00, 0x00, 0x00, 0x01, 0x01, 0x00, 0x00, 0x00,
  0x2b, 0x00, 0x00, 0x00, 0x03, 0x00, 0x00, 0x00, 0x2a, 0x00, 0x00, 0x00,
  0x0b, 0x00, 0x00, 0x00, 0x0a, 0x00, 0x00, 0x00, 0x0a, 0xfd, 0xff, 0xff,
  0x14, 0x00, 0x00, 0x00, 0x00, 0x00, 0x00, 0x1b, 0x10, 0x00, 0x00, 0x00,
  0x14, 0x00, 0x00, 0x00, 0x06, 0x00, 0x00, 0x00, 0xcc, 0xc6, 0xff, 0xff,
  0x01, 0x00, 0x00, 0x00, 0x2a, 0x00, 0x00, 0x00, 0x02, 0x00, 0x00, 0x00,
  0x29, 0x00, 0x00, 0x00, 0x07, 0x00, 0x00, 0x00, 0xda, 0xfc, 0xff, 0xff,
  0x0c, 0x00, 0x00, 0x00, 0x10, 0x00, 0x00, 0x00, 0x01, 0x00, 0x00, 0x00,
  0x01, 0x00, 0x00, 0x00, 0x29, 0x00, 0x00, 0x00, 0x02, 0x00, 0x00, 0x00,
  0x28, 0x00, 0x00, 0x00, 0x06, 0x00, 0x00, 0x00, 0x8a, 0xfe, 0xff, 0xff,
  0x1c, 0x00, 0x00, 0x00, 0x00, 0x00, 0x00, 0x0b, 0x1c, 0x00, 0x00, 0x00,
  0x20, 0x00, 0x00, 0x00, 0x05, 0x00, 0x00, 0x00, 0x00, 0x00, 0x06, 0x00,
  0x08, 0x00, 0x07, 0x00, 0x06, 0x00, 0x00, 0x00, 0x00, 0x00, 0x00, 0x01,
  0x01, 0x00, 0x00, 0x00, 0x28, 0x00, 0x00, 0x00, 0x02, 0x00, 0x00, 0x00,
  0x27, 0x00, 0x00, 0x00, 0x21, 0x00, 0x00, 0x00, 0x9a, 0xfd, 0xff, 0xff,
  0x14, 0x00, 0x00, 0x00, 0x00, 0x00, 0x00, 0x0b, 0x10, 0x00, 0x00, 0x00,
  0x14, 0x00, 0x00, 0x00, 0x05, 0x00, 0x00, 0x00, 0x5c, 0xc7, 0xff, 0xff,
  0x01, 0x00, 0x00, 0x00, 0x27, 0x00, 0x00, 0x00, 0x02, 0x00, 0x00, 0x00,
  0x26, 0x00, 0x00, 0x00, 0x0c, 0x00, 0x00, 0x00, 0xca, 0xfd, 0xff, 0xff,
  0x14, 0x00, 0x00, 0x00, 0x00, 0x00, 0x00, 0x15, 0x10, 0x00, 0x00, 0x00,
  0x14, 0x00, 0x00, 0x00, 0x04, 0x00, 0x00, 0x00, 0x8c, 0xc7, 0xff, 0xff,
  0x01, 0x00, 0x00, 0x00, 0x26, 0x00, 0x00, 0x00, 0x02, 0x00, 0x00, 0x00,
  0x25, 0x00, 0x00, 0x00, 0x0d, 0x00, 0x00, 0x00, 0xfa, 0xfd, 0xff, 0xff,
  0x14, 0x00, 0x00, 0x00, 0x00, 0x00, 0x00, 0x01, 0x20, 0x00, 0x00, 0x00,
  0x24, 0x00, 0x00, 0x00, 0x03, 0x00, 0x00, 0x00, 0x4c, 0xfe, 0xff, 0xff,
  0x00, 0x00, 0x00, 0x01, 0x01, 0x00, 0x00, 0x00, 0x01, 0x00, 0x00, 0x00,
  0x00, 0x00, 0x00, 0x01, 0x01, 0x00, 0x00, 0x00, 0x25, 0x00, 0x00, 0x00,
  0x03, 0x00, 0x00, 0x00, 0x24, 0x00, 0x00, 0x00, 0x0f, 0x00, 0x00, 0x00,
  0x0e, 0x00, 0x00, 0x00, 0x3e, 0xfe, 0xff, 0xff, 0x14, 0x00, 0x00, 0x00,
  0x00, 0x00, 0x00, 0x02, 0x20, 0x00, 0x00, 0x00, 0x24, 0x00, 0x00, 0x00,
  0x02, 0x00, 0x00, 0x00, 0x30, 0xfe, 0xff, 0xff, 0x01, 0x00, 0x00, 0x00,
  0x01, 0x00, 0x00, 0x00, 0x01, 0x00, 0x00, 0x00, 0x00, 0x00, 0x00, 0x01,
  0x01, 0x00, 0x00, 0x00, 0x24, 0x00, 0x00, 0x00, 0x03, 0x00, 0x00, 0x00,
  0x23, 0x00, 0x00, 0x00, 0x11, 0x00, 0x00, 0x00, 0x10, 0x00, 0x00, 0x00,
  0x22, 0xfe, 0xff, 0xff, 0x0c, 0x00, 0x00, 0x00, 0x10, 0x00, 0x00, 0x00,
  0x01, 0x00, 0x00, 0x00, 0x01, 0x00, 0x00, 0x00, 0x23, 0x00, 0x00, 0x00,
  0x02, 0x00, 0x00, 0x00, 0x22, 0x00, 0x00, 0x00, 0x05, 0x00, 0x00, 0x00,
  0x16, 0xfe, 0xff, 0xff, 0x10, 0x00, 0x00, 0x00, 0x00, 0x00, 0x00, 0x16,
  0x0c, 0x00, 0x00, 0x00, 0x10, 0x00, 0x00, 0x00, 0x64, 0xc8, 0xff, 0xff,
  0x01, 0x00, 0x00, 0x00, 0x22, 0x00, 0x00, 0x00, 0x02, 0x00, 0x00, 0x00,
  0x20, 0x00, 0x00, 0x00, 0x04, 0x00, 0x00, 0x00, 0x00, 0x00, 0x0e, 0x00,
  0x1a, 0x00, 0x14, 0x00, 0x10, 0x00, 0x0c, 0x00, 0x0b, 0x00, 0x04, 0x00,
  0x0e, 0x00, 0x00, 0x00, 0x20, 0x00, 0x00, 0x00, 0x00, 0x00, 0x00, 0x01,
  0x24, 0x00, 0x00, 0x00, 0x28, 0x00, 0x00, 0x00, 0x03, 0x00, 0x00, 0x00,
  0x00, 0x00, 0x0a, 0x00, 0x0c, 0x00, 0x00, 0x00, 0x08, 0x00, 0x04, 0x00,
  0x0a, 0x00, 0x00, 0x00, 0x01, 0x00, 0x00, 0x00, 0x01, 0x00, 0x00, 0x00,
  0x01, 0x00, 0x00, 0x00, 0x21, 0x00, 0x00, 0x00, 0x03, 0x00, 0x00, 0x00,
  0x1f, 0x00, 0x00, 0x00, 0x13, 0x00, 0x00, 0x00, 0x12, 0x00, 0x00, 0x00,
  0xca, 0xfe, 0xff, 0xff, 0x0c, 0x00, 0x00, 0x00, 0x10, 0x00, 0x00, 0x00,
  0x01, 0x00, 0x00, 0x00, 0x01, 0x00, 0x00, 0x00, 0x20, 0x00, 0x00, 0x00,
  0x02, 0x00, 0x00, 0x00, 0x1f, 0x00, 0x00, 0x00, 0x03, 0x00, 0x00, 0x00,
  0x4e, 0xff, 0xff, 0xff, 0x14, 0x00, 0x00, 0x00, 0x00, 0x00, 0x00, 0x0b,
  0x10, 0x00, 0x00, 0x00, 0x14, 0x00, 0x00, 0x00, 0x05, 0x00, 0x00, 0x00,
  0x10, 0xc9, 0xff, 0xff, 0x01, 0x00, 0x00, 0x00, 0x1f, 0x00, 0x00, 0x00,
  0x02, 0x00, 0x00, 0x00, 0x1e, 0x00, 0x00, 0x00, 0x14, 0x00, 0x00, 0x00,
  0x7e, 0xff, 0xff, 0xff, 0x14, 0x00, 0x00, 0x00, 0x00, 0x00, 0x00, 0x15,
  0x10, 0x00, 0x00, 0x00, 0x14, 0x00, 0x00, 0x00, 0x04, 0x00, 0x00, 0x00,
  0x40, 0xc9, 0xff, 0xff, 0x01, 0x00, 0x00, 0x00, 0x1e, 0x00, 0x00, 0x00,
  0x02, 0x00, 0x00, 0x00, 0x1d, 0x00, 0x00, 0x00, 0x15, 0x00, 0x00, 0x00,
  0xae, 0xff, 0xff, 0xff, 0x20, 0x00, 0x00, 0x00, 0x00, 0x00, 0x00, 0x01,
  0x2c, 0x00, 0x00, 0x00, 0x30, 0x00, 0x00, 0x00, 0x03, 0x00, 0x00, 0x00,
  0x0c, 0x00, 0x14, 0x00, 0x13, 0x00, 0x0c, 0x00, 0x08, 0x00, 0x07, 0x00,
  0x0c, 0x00, 0x00, 0x00, 0x00, 0x00, 0x00, 0x01, 0x01, 0x00, 0x00, 0x00,
  0x01, 0x00, 0x00, 0x00, 0x00, 0x00, 0x00, 0x01, 0x01, 0x00, 0x00, 0x00,
  0x1d, 0x00, 0x00, 0x00, 0x03, 0x00, 0x00, 0x00, 0x1c, 0x00, 0x00, 0x00,
  0x17, 0x00, 0x00, 0x00, 0x16, 0x00, 0x00, 0x00, 0x00, 0x00, 0x0e, 0x00,
  0x18, 0x00, 0x14, 0x00, 0x10, 0x00, 0x0c, 0x00, 0x0b, 0x00, 0x04, 0x00,
  0x0e, 0x00, 0x00, 0x00, 0x20, 0x00, 0x00, 0x00, 0x00, 0x00, 0x00, 0x02,
  0x2c, 0x00, 0x00, 0x00, 0x30, 0x00, 0x00, 0x00, 0x02, 0x00, 0x00, 0x00,
  0x0c, 0x00, 0x14, 0x00, 0x13, 0x00, 0x0c, 0x00, 0x08, 0x00, 0x04, 0x00,
  0x0c, 0x00, 0x00, 0x00, 0x01, 0x00, 0x00, 0x00, 0x01, 0x00, 0x00, 0x00,
  0x01, 0x00, 0x00, 0x00, 0x00, 0x00, 0x00, 0x01, 0x01, 0x00, 0x00, 0x00,
  0x1c, 0x00, 0x00, 0x00, 0x03, 0x00, 0x00, 0x00, 0x1b, 0x00, 0x00, 0x00,
  0x19, 0x00, 0x00, 0x00, 0x18, 0x00, 0x00, 0x00, 0x00, 0x00, 0x0a, 0x00,
  0x10, 0x00, 0x0c, 0x00, 0x08, 0x00, 0x04, 0x00, 0x0a, 0x00, 0x00, 0x00,
  0x0c, 0x00, 0x00, 0x00, 0x10, 0x00, 0x00, 0x00, 0x01, 0x00, 0x00, 0x00,
  0x01, 0x00, 0x00, 0x00, 0x1b, 0x00, 0x00, 0x00, 0x02, 0x00, 0x00, 0x00,
  0x1a, 0x00, 0x00, 0x00, 0x02, 0x00, 0x00, 0x00, 0x00, 0x00, 0x0e, 0x00,
  0x14, 0x00, 0x00, 0x00, 0x10, 0x00, 0x0c, 0x00, 0x0b, 0x00, 0x04, 0x00,
  0x0e, 0x00, 0x00, 0x00, 0x10, 0x00, 0x00, 0x00, 0x00, 0x00, 0x00, 0x16,
  0x0c, 0x00, 0x00, 0x00, 0x10, 0x00, 0x00, 0x00, 0x5c, 0xca, 0xff, 0xff,
  0x01, 0x00, 0x00, 0x00, 0x1a, 0x00, 0x00, 0x00, 0x02, 0x00, 0x00, 0x00,
  0x00, 0x00, 0x00, 0x00, 0x01, 0x00, 0x00, 0x00, 0x01, 0x00, 0x00, 0x00,
  0x2c, 0x00, 0x00, 0x00, 0x01, 0x00, 0x00, 0x00, 0x00, 0x00, 0x00, 0x00,
  0x2d, 0x00, 0x00, 0x00, 0xb8, 0x35, 0x00, 0x00, 0x58, 0x35, 0x00, 0x00,
  0x18, 0x35, 0x00, 0x00, 0xd8, 0x34, 0x00, 0x00, 0x94, 0x34, 0x00, 0x00,
  0x54, 0x34, 0x00, 0x00, 0x14, 0x34, 0x00, 0x00, 0xd8, 0x33, 0x00, 0x00,
  0x6c, 0x33, 0x00, 0x00, 0xf8, 0x32, 0x00, 0x00, 0x24, 0x31, 0x00, 0x00,
  0x48, 0x2f, 0x00, 0x00, 0xe4, 0x2e, 0x00, 0x00, 0x80, 0x2e, 0x00, 0x00,
  0x2c, 0x2b, 0x00, 0x00, 0xc8, 0x27, 0x00, 0x00, 0xf4, 0x25, 0x00, 0x00,
  0xf8, 0x23, 0x00, 0x00, 0x8c, 0x20, 0x00, 0x00, 0x28, 0x1d, 0x00, 0x00,
  0xc4, 0x1c, 0x00, 0x00, 0x60, 0x1c, 0x00, 0x00, 0x8c, 0x1a, 0x00, 0x00,
  0xa8, 0x18, 0x00, 0x00, 0xac, 0x17, 0x00, 0x00, 0x9c, 0x16, 0x00, 0x00,
  0x1c, 0x16, 0x00, 0x00, 0x90, 0x15, 0x00, 0x00, 0xf4, 0x14, 0x00, 0x00,
  0xb0, 0x13, 0x00, 0x00, 0x34, 0x12, 0x00, 0x00, 0x48, 0x10, 0x00, 0x00,
  0x64, 0x0e, 0x00, 0x00, 0x70, 0x0d, 0x00, 0x00, 0xec, 0x0c, 0x00, 0x00,
  0x60, 0x0c, 0x00, 0x00, 0xc4, 0x0b, 0x00, 0x00, 0x78, 0x0a, 0x00, 0x00,
  0xec, 0x08, 0x00, 0x00, 0xf0, 0x06, 0x00, 0x00, 0x44, 0x04, 0x00, 0x00,
  0x98, 0x01, 0x00, 0x00, 0x14, 0x01, 0x00, 0x00, 0x60, 0x00, 0x00, 0x00,
  0x04, 0x00, 0x00, 0x00, 0x12, 0xcb, 0xff, 0xff, 0x00, 0x00, 0x00, 0x01,
  0x14, 0x00, 0x00, 0x00, 0x30, 0x00, 0x00, 0x00, 0x2d, 0x00, 0x00, 0x00,
  0x00, 0x00, 0x00, 0x09, 0x34, 0x00, 0x00, 0x00, 0xfc, 0xca, 0xff, 0xff,
  0x08, 0x00, 0x00, 0x00, 0x10, 0x00, 0x00, 0x00, 0x01, 0x00, 0x00, 0x00,
  0x17, 0x00, 0x00, 0x00, 0x00, 0x00, 0x00, 0x00, 0x01, 0x00, 0x00, 0x00,
  0x79, 0xb1, 0xc8, 0x3c, 0x08, 0x00, 0x00, 0x00, 0x49, 0x64, 0x65, 0x6e,
  0x74, 0x69, 0x74, 0x79, 0x00, 0x00, 0x00, 0x00, 0x02, 0x00, 0x00, 0x00,
  0x01, 0x00, 0x00, 0x00, 0x02, 0x00, 0x00, 0x00, 0x6a, 0xcb, 0xff, 0xff,
  0x00, 0x00, 0x00, 0x01, 0x14, 0x00, 0x00, 0x00, 0x30, 0x00, 0x00, 0x00,
  0x2c, 0x00, 0x00, 0x00, 0x00, 0x00, 0x00, 0x09, 0x8c, 0x00, 0x00, 0x00,
  0x54, 0xcb, 0xff, 0xff, 0x08, 0x00, 0x00, 0x00, 0x10, 0x00, 0x00, 0x00,
  0x01, 0x00, 0x00, 0x00, 0x80, 0xff, 0xff, 0xff, 0xff, 0xff, 0xff, 0xff,
  0x01, 0x00, 0x00, 0x00, 0x05, 0x7e, 0x82, 0x3c, 0x61, 0x00, 0x00, 0x00,
  0x68, 0x65, 0x61, 0x74, 0x73, 0x65, 0x6e, 0x73, 0x65, 0x5f, 0x69, 0x6e,
  0x66, 0x65, 0x72, 0x5f, 0x31, 0x2f, 0x64, 0x65, 0x6e, 0x73, 0x65, 0x5f,
  0x31, 0x2f, 0x4d, 0x61, 0x74, 0x4d, 0x75, 0x6c, 0x3b, 0x68, 0x65, 0x61,
  0x74, 0x73, 0x65, 0x6e, 0x73, 0x65, 0x5f, 0x69, 0x6e, 0x66, 0x65, 0x72,
  0x5f, 0x31, 0x2f, 0x64, 0x65, 0x6e, 0x73, 0x65, 0x5f, 0x31, 0x2f, 0x52,
  0x65, 0x6c, 0x75, 0x3b, 0x68, 0x65, 0x61, 0x74, 0x73, 0x65, 0x6e, 0x73,
  0x65, 0x5f, 0x69, 0x6e, 0x66, 0x65, 0x72, 0x5f, 0x31, 0x2f, 0x64, 0x65,
  0x6e, 0x73, 0x65, 0x5f, 0x31, 0x2f, 0x42, 0x69, 0x61, 0x73, 0x41, 0x64,
  0x64, 0x00, 0x00, 0x00, 0x02, 0x00, 0x00, 0x00, 0x01, 0x00, 0x00, 0x00,
  0x20, 0x00, 0x00, 0x00, 0x1a, 0xcc, 0xff, 0xff, 0x00, 0x00, 0x00, 0x01,
  0x14, 0x00, 0x00, 0x00, 0x30, 0x00, 0x00, 0x00, 0x2b, 0x00, 0x00, 0x00,
  0x00, 0x00, 0x00, 0x09, 0x5c, 0x00, 0x00, 0x00, 0x04, 0xcc, 0xff, 0xff,
  0x08, 0x00, 0x00, 0x00, 0x10, 0x00, 0x00, 0x00, 0x01, 0x00, 0x00, 0x00,
  0x80, 0xff, 0xff, 0xff, 0xff, 0xff, 0xff, 0xff, 0x01, 0x00, 0x00, 0x00,
  0x90, 0x4e, 0xc7, 0x3c, 0x31, 0x00, 0x00, 0x00, 0x68, 0x65, 0x61, 0x74,
  0x73, 0x65, 0x6e, 0x73, 0x65, 0x5f, 0x69, 0x6e, 0x66, 0x65, 0x72, 0x5f,
  0x31, 0x2f, 0x67, 0x6c, 0x6f, 0x62, 0x61, 0x6c, 0x5f, 0x61, 0x76, 0x65,
  0x72, 0x61, 0x67, 0x65, 0x5f, 0x70, 0x6f, 0x6f, 0x6c, 0x69, 0x6e, 0x67,
  0x31, 0x64, 0x5f, 0x31, 0x2f, 0x4d, 0x65, 0x61, 0x6e, 0x00, 0x00, 0x00,
  0x02, 0x00, 0x00, 0x00, 0x01, 0x00, 0x00, 0x00, 0x40, 0x00, 0x00, 0x00,
  0x9a, 0xcc, 0xff, 0xff, 0x00, 0x00, 0x00, 0x01, 0x14, 0x00, 0x00, 0x00,
  0x30, 0x00, 0x00, 0x00, 0x2a, 0x00, 0x00, 0x00, 0x00, 0x00, 0x00, 0x09,
  0x80, 0x02, 0x00, 0x00, 0x84, 0xcc, 0xff, 0xff, 0x08, 0x00, 0x00, 0x00,
  0x10, 0x00, 0x00, 0x00, 0x01, 0x00, 0x00, 0x00, 0x80, 0xff, 0xff, 0xff,
  0xff, 0xff, 0xff, 0xff, 0x01, 0x00, 0x00, 0x00, 0x1f, 0x90, 0x58, 0x3d,
  0x54, 0x02, 0x00, 0x00, 0x68, 0x65, 0x61, 0x74, 0x73, 0x65, 0x6e, 0x73,
  0x65, 0x5f, 0x69, 0x6e, 0x66, 0x65, 0x72, 0x5f, 0x31, 0x2f, 0x61, 0x63,
  0x74, 0x69, 0x76, 0x61, 0x74, 0x69, 0x6f, 0x6e, 0x5f, 0x31, 0x2f, 0x52,
  0x65, 0x6c, 0x75, 0x3b, 0x68, 0x65, 0x61, 0x74, 0x73, 0x65, 0x6e, 0x73,
  0x65, 0x5f, 0x69, 0x6e, 0x66, 0x65, 0x72, 0x5f, 0x31, 0x2f, 0x61, 0x64,
  0x64, 0x5f, 0x31, 0x2f, 0x41, 0x64, 0x64, 0x3b, 0x68, 0x65, 0x61, 0x74,
  0x73, 0x65, 0x6e, 0x73, 0x65, 0x5f, 0x69, 0x6e, 0x66, 0x65, 0x72, 0x5f,
  0x31, 0x2f, 0x73, 0x65, 0x70, 0x61, 0x72, 0x61, 0x62, 0x6c, 0x65, 0x5f,
  0x63, 0x6f, 0x6e, 0x76, 0x31, 0x64, 0x5f, 0x31, 0x5f, 0x32, 0x2f, 0x53,
  0x71, 0x75, 0x65, 0x65, 0x7a, 0x65, 0x3b, 0x68, 0x65, 0x61, 0x74, 0x73,
  0x65, 0x6e, 0x73, 0x65, 0x5f, 0x69, 0x6e, 0x66, 0x65, 0x72, 0x5f, 0x31,
  0x2f, 0x62, 0x61, 0x74, 0x63, 0x68, 0x5f, 0x6e, 0x6f, 0x72, 0x6d, 0x61,
  0x6c, 0x69, 0x7a, 0x61, 0x74, 0x69, 0x6f, 0x6e, 0x5f, 0x31, 0x5f, 0x32,
  0x2f, 0x62, 0x61, 0x74, 0x63, 0x68, 0x6e, 0x6f, 0x72, 0x6d, 0x2f, 0x61,
  0x64, 0x64, 0x5f, 0x31, 0x3b, 0x68, 0x65, 0x61, 0x74, 0x73, 0x65, 0x6e,
  0x73, 0x65, 0x5f, 0x69, 0x6e, 0x66, 0x65, 0x72, 0x5f, 0x31, 0x2f, 0x62,
  0x61, 0x74, 0x63, 0x68, 0x5f, 0x6e, 0x6f, 0x72, 0x6d, 0x61, 0x6c, 0x69,
  0x7a, 0x61, 0x74, 0x69, 0x6f, 0x6e, 0x5f, 0x31, 0x5f, 0x32, 0x2f, 0x62,
  0x61, 0x74, 0x63, 0x68, 0x6e, 0x6f, 0x72, 0x6d, 0x2f, 0x6d, 0x75, 0x6c,
  0x5f, 0x31, 0x3b, 0x68, 0x65, 0x61, 0x74, 0x73, 0x65, 0x6e, 0x73, 0x65,
  0x5f, 0x69, 0x6e, 0x66, 0x65, 0x72, 0x5f, 0x31, 0x2f, 0x73, 0x65, 0x70,
  0x61, 0x72, 0x61, 0x62, 0x6c, 0x65, 0x5f, 0x63, 0x6f, 0x6e, 0x76, 0x31,
  0x64, 0x5f, 0x31, 0x5f, 0x32, 0x2f, 0x52, 0x65, 0x6c, 0x75, 0x3b, 0x68,
  0x65, 0x61, 0x74, 0x73, 0x65, 0x6e, 0x73, 0x65, 0x5f, 0x69, 0x6e, 0x66,
  0x65, 0x72, 0x5f, 0x31, 0x2f, 0x73, 0x65, 0x70, 0x61, 0x72, 0x61, 0x62,
  0x6c, 0x65, 0x5f, 0x63, 0x6f, 0x6e, 0x76, 0x31, 0x64, 0x5f, 0x31, 0x5f,
  0x32, 0x2f, 0x42, 0x69, 0x61, 0x73, 0x41, 0x64, 0x64, 0x3b, 0x68, 0x65,
  0x61, 0x74, 0x73, 0x65, 0x6e, 0x73, 0x65, 0x5f, 0x69, 0x6e, 0x66, 0x65,
  0x72, 0x5f, 0x31, 0x2f, 0x73, 0x65, 0x70, 0x61, 0x72, 0x61, 0x62, 0x6c,
  0x65, 0x5f, 0x63, 0x6f, 0x6e, 0x76, 0x31, 0x64, 0x5f, 0x31, 0x5f, 0x32,
  0x2f, 0x53, 0x71, 0x75, 0x65, 0x65, 0x7a, 0x65, 0x5f, 0x31, 0x3b, 0x68,
  0x65, 0x61, 0x74, 0x73, 0x65, 0x6e, 0x73, 0x65, 0x5f, 0x69, 0x6e, 0x66,
  0x65, 0x72, 0x5f, 0x31, 0x2f, 0x62, 0x61, 0x74, 0x63, 0x68, 0x5f, 0x6e,
  0x6f, 0x72, 0x6d, 0x61, 0x6c, 0x69, 0x7a, 0x61, 0x74, 0x69, 0x6f, 0x6e,
  0x5f, 0x31, 0x5f, 0x32, 0x2f, 0x62, 0x61, 0x74, 0x63, 0x68, 0x6e, 0x6f,
  0x72, 0x6d, 0x2f, 0x6d, 0x75, 0x6c, 0x3b, 0x68, 0x65, 0x61, 0x74, 0x73,
  0x65, 0x6e, 0x73, 0x65, 0x5f, 0x69, 0x6e, 0x66, 0x65, 0x72, 0x5f, 0x31,
  0x2f, 0x62, 0x61, 0x74, 0x63, 0x68, 0x5f, 0x6e, 0x6f, 0x72, 0x6d, 0x61,
  0x6c, 0x69, 0x7a, 0x61, 0x74, 0x69, 0x6f, 0x6e, 0x5f, 0x31, 0x5f, 0x32,
  0x2f, 0x62, 0x61, 0x74, 0x63, 0x68, 0x6e, 0x6f, 0x72, 0x6d, 0x2f, 0x73,
  0x75, 0x62, 0x3b, 0x68, 0x65, 0x61, 0x74, 0x73, 0x65, 0x6e, 0x73, 0x65,
  0x5f, 0x69, 0x6e, 0x66, 0x65, 0x72, 0x5f, 0x31, 0x2f, 0x63, 0x6f, 0x6e,
  0x76, 0x31, 0x64, 0x5f, 0x31, 0x2f, 0x63, 0x6f, 0x6e, 0x76, 0x6f, 0x6c,
  0x75, 0x74, 0x69, 0x6f, 0x6e, 0x2f, 0x53, 0x71, 0x75, 0x65, 0x65, 0x7a,
  0x65, 0x3b, 0x68, 0x65, 0x61, 0x74, 0x73, 0x65, 0x6e, 0x73, 0x65, 0x5f,
  0x69, 0x6e, 0x66, 0x65, 0x72, 0x5f, 0x31, 0x2f, 0x63, 0x6f, 0x6e, 0x76,
  0x31, 0x64, 0x5f, 0x31, 0x2f, 0x42, 0x69, 0x61, 0x73, 0x41, 0x64, 0x64,
  0x3b, 0x68, 0x65, 0x61, 0x74, 0x73, 0x65, 0x6e, 0x73, 0x65, 0x5f, 0x69,
  0x6e, 0x66, 0x65, 0x72, 0x5f, 0x31, 0x2f, 0x63, 0x6f, 0x6e, 0x76, 0x31,
  0x64, 0x5f, 0x31, 0x2f, 0x53, 0x71, 0x75, 0x65, 0x65, 0x7a, 0x65, 0x31,
  0x00, 0x00, 0x00, 0x00, 0x03, 0x00, 0x00, 0x00, 0x01, 0x00, 0x00, 0x00,
  0x1e, 0x00, 0x00, 0x00, 0x40, 0x00, 0x00, 0x00, 0x42, 0xcf, 0xff, 0xff,
  0x00, 0x00, 0x00, 0x01, 0x14, 0x00, 0x00, 0x00, 0x30, 0x00, 0x00, 0x00,
  0x29, 0x00, 0x00, 0x00, 0x00, 0x00, 0x00, 0x09, 0x7c, 0x02, 0x00, 0x00,
  0x2c, 0xcf, 0xff, 0xff, 0x08, 0x00, 0x00, 0x00, 0x10, 0x00, 0x00, 0x00,
  0x01, 0x00, 0x00, 0x00, 0x80, 0xff, 0xff, 0xff, 0xff, 0xff, 0xff, 0xff,
  0x01, 0x00, 0x00, 0x00, 0x1f, 0x90, 0x58, 0x3d, 0x53, 0x02, 0x00, 0x00,
  0x68, 0x65, 0x61, 0x74, 0x73, 0x65, 0x6e, 0x73, 0x65, 0x5f, 0x69, 0x6e,
  0x66, 0x65, 0x72, 0x5f, 0x31, 0x2f, 0x61, 0x63, 0x74, 0x69, 0x76, 0x61,
  0x74, 0x69, 0x6f, 0x6e, 0x5f, 0x31, 0x2f, 0x52, 0x65, 0x6c, 0x75, 0x3b,
  0x68, 0x65, 0x61, 0x74, 0x73, 0x65, 0x6e, 0x73, 0x65, 0x5f, 0x69, 0x6e,
  0x66, 0x65, 0x72, 0x5f, 0x31, 0x2f, 0x61, 0x64, 0x64, 0x5f, 0x31, 0x2f,
  0x41, 0x64, 0x64, 0x3b, 0x68, 0x65, 0x61, 0x74, 0x73, 0x65, 0x6e, 0x73,
  0x65, 0x5f, 0x69, 0x6e, 0x66, 0x65, 0x72, 0x5f, 0x31, 0x2f, 0x73, 0x65,
  0x70, 0x61, 0x72, 0x61, 0x62, 0x6c, 0x65, 0x5f, 0x63, 0x6f, 0x6e, 0x76,
  0x31, 0x64, 0x5f, 0x31, 0x5f, 0x32, 0x2f, 0x53, 0x71, 0x75, 0x65, 0x65,
  0x7a, 0x65, 0x3b, 0x68, 0x65, 0x61, 0x74, 0x73, 0x65, 0x6e, 0x73, 0x65,
  0x5f, 0x69, 0x6e, 0x66, 0x65, 0x72, 0x5f, 0x31, 0x2f, 0x62, 0x61, 0x74,
  0x63, 0x68, 0x5f, 0x6e, 0x6f, 0x72, 0x6d, 0x61, 0x6c, 0x69, 0x7a, 0x61,
  0x74, 0x69, 0x6f, 0x6e, 0x5f, 0x31, 0x5f, 0x32, 0x2f, 0x62, 0x61, 0x74,
  0x63, 0x68, 0x6e, 0x6f, 0x72, 0x6d, 0x2f, 0x61, 0x64, 0x64, 0x5f, 0x31,
  0x3b, 0x68, 0x65, 0x61, 0x74, 0x73, 0x65, 0x6e, 0x73, 0x65, 0x5f, 0x69,
  0x6e, 0x66, 0x65, 0x72, 0x5f, 0x31, 0x2f, 0x62, 0x61, 0x74, 0x63, 0x68,
  0x5f, 0x6e, 0x6f, 0x72, 0x6d, 0x61, 0x6c, 0x69, 0x7a, 0x61, 0x74, 0x69,
  0x6f, 0x6e, 0x5f, 0x31, 0x5f, 0x32, 0x2f, 0x62, 0x61, 0x74, 0x63, 0x68,
  0x6e, 0x6f, 0x72, 0x6d, 0x2f, 0x6d, 0x75, 0x6c, 0x5f, 0x31, 0x3b, 0x68,
  0x65, 0x61, 0x74, 0x73, 0x65, 0x6e, 0x73, 0x65, 0x5f, 0x69, 0x6e, 0x66,
  0x65, 0x72, 0x5f, 0x31, 0x2f, 0x73, 0x65, 0x70, 0x61, 0x72, 0x61, 0x62,
  0x6c, 0x65, 0x5f, 0x63, 0x6f, 0x6e, 0x76, 0x31, 0x64, 0x5f, 0x31, 0x5f,
  0x32, 0x2f, 0x52, 0x65, 0x6c, 0x75, 0x3b, 0x68, 0x65, 0x61, 0x74, 0x73,
  0x65, 0x6e, 0x73, 0x65, 0x5f, 0x69, 0x6e, 0x66, 0x65, 0x72, 0x5f, 0x31,
  0x2f, 0x73, 0x65, 0x70, 0x61, 0x72, 0x61, 0x62, 0x6c, 0x65, 0x5f, 0x63,
  0x6f, 0x6e, 0x76, 0x31, 0x64, 0x5f, 0x31, 0x5f, 0x32, 0x2f, 0x42, 0x69,
  0x61, 0x73, 0x41, 0x64, 0x64, 0x3b, 0x68, 0x65, 0x61, 0x74, 0x73, 0x65,
  0x6e, 0x73, 0x65, 0x5f, 0x69, 0x6e, 0x66, 0x65, 0x72, 0x5f, 0x31, 0x2f,
  0x73, 0x65, 0x70, 0x61, 0x72, 0x61, 0x62, 0x6c, 0x65, 0x5f, 0x63, 0x6f,
  0x6e, 0x76, 0x31, 0x64, 0x5f, 0x31, 0x5f, 0x32, 0x2f, 0x53, 0x71, 0x75,
  0x65, 0x65, 0x7a, 0x65, 0x5f, 0x31, 0x3b, 0x68, 0x65, 0x61, 0x74, 0x73,
  0x65, 0x6e, 0x73, 0x65, 0x5f, 0x69, 0x6e, 0x66, 0x65, 0x72, 0x5f, 0x31,
  0x2f, 0x62, 0x61, 0x74, 0x63, 0x68, 0x5f, 0x6e, 0x6f, 0x72, 0x6d, 0x61,
  0x6c, 0x69, 0x7a, 0x61, 0x74, 0x69, 0x6f, 0x6e, 0x5f, 0x31, 0x5f, 0x32,
  0x2f, 0x62, 0x61, 0x74, 0x63, 0x68, 0x6e, 0x6f, 0x72, 0x6d, 0x2f, 0x6d,
  0x75, 0x6c, 0x3b, 0x68, 0x65, 0x61, 0x74, 0x73, 0x65, 0x6e, 0x73, 0x65,
  0x5f, 0x69, 0x6e, 0x66, 0x65, 0x72, 0x5f, 0x31, 0x2f, 0x62, 0x61, 0x74,
  0x63, 0x68, 0x5f, 0x6e, 0x6f, 0x72, 0x6d, 0x61, 0x6c, 0x69, 0x7a, 0x61,
  0x74, 0x69, 0x6f, 0x6e, 0x5f, 0x31, 0x5f, 0x32, 0x2f, 0x62, 0x61, 0x74,
  0x63, 0x68, 0x6e, 0x6f, 0x72, 0x6d, 0x2f, 0x73, 0x75, 0x62, 0x3b, 0x68,
  0x65, 0x61, 0x74, 0x73, 0x65, 0x6e, 0x73, 0x65, 0x5f, 0x69, 0x6e, 0x66,
  0x65, 0x72, 0x5f, 0x31, 0x2f, 0x63, 0x6f, 0x6e, 0x76, 0x31, 0x64, 0x5f,
  0x31, 0x2f, 0x63, 0x6f, 0x6e, 0x76, 0x6f, 0x6c, 0x75, 0x74, 0x69, 0x6f,
  0x6e, 0x2f, 0x53, 0x71, 0x75, 0x65, 0x65, 0x7a, 0x65, 0x3b, 0x68, 0x65,
  0x61, 0x74, 0x73, 0x65, 0x6e, 0x73, 0x65, 0x5f, 0x69, 0x6e, 0x66, 0x65,
  0x72, 0x5f, 0x31, 0x2f, 0x63, 0x6f, 0x6e, 0x76, 0x31, 0x64, 0x5f, 0x31,
  0x2f, 0x42, 0x69, 0x61, 0x73, 0x41, 0x64, 0x64, 0x3b, 0x68, 0x65, 0x61,
  0x74, 0x73, 0x65, 0x6e, 0x73, 0x65, 0x5f, 0x69, 0x6e, 0x66, 0x65, 0x72,
  0x5f, 0x31, 0x2f, 0x63, 0x6f, 0x6e, 0x76, 0x31, 0x64, 0x5f, 0x31, 0x2f,
  0x53, 0x71, 0x75, 0x65, 0x65, 0x7a, 0x65, 0x00, 0x04, 0x00, 0x00, 0x00,
  0x01, 0x00, 0x00, 0x00, 0x01, 0x00, 0x00, 0x00, 0x1e, 0x00, 0x00, 0x00,
  0x40, 0x00, 0x00, 0x00, 0xea, 0xd1, 0xff, 0xff, 0x00, 0x00, 0x00, 0x01,
  0x14, 0x00, 0x00, 0x00, 0x34, 0x00, 0x00, 0x00, 0x28, 0x00, 0x00, 0x00,
  0x00, 0x00, 0x00, 0x09, 0xcc, 0x01, 0x00, 0x00, 0xd4, 0xd1, 0xff, 0xff,
  0x08, 0x00, 0x00, 0x00, 0x14, 0x00, 0x00, 0x00, 0x01, 0x00, 0x00, 0x00,
  0x99, 0xff, 0xff, 0xff, 0xff, 0xff, 0xff, 0xff, 0x00, 0x00, 0x00, 0x00,
  0x01, 0x00, 0x00, 0x00, 0x92, 0x98, 0x6f, 0x3d, 0x9e, 0x01, 0x00, 0x00,
  0x68, 0x65, 0x61, 0x74, 0x73, 0x65, 0x6e, 0x73, 0x65, 0x5f, 0x69, 0x6e,
  0x66, 0x65, 0x72, 0x5f, 0x31, 0x2f, 0x62, 0x61, 0x74, 0x63, 0x68, 0x5f,
  0x6e, 0x6f, 0x72, 0x6d, 0x61, 0x6c, 0x69, 0x7a, 0x61, 0x74, 0x69, 0x6f,
  0x6e, 0x5f, 0x31, 0x5f, 0x32, 0x2f, 0x62, 0x61, 0x74, 0x63, 0x68, 0x6e,
  0x6f, 0x72, 0x6d, 0x2f, 0x61, 0x64, 0x64, 0x5f, 0x31, 0x3b, 0x68, 0x65,
  0x61, 0x74, 0x73, 0x65, 0x6e, 0x73, 0x65, 0x5f, 0x69, 0x6e, 0x66, 0x65,
  0x72, 0x5f, 0x31, 0x2f, 0x73, 0x65, 0x70, 0x61, 0x72, 0x61, 0x62, 0x6c,
  0x65, 0x5f, 0x63, 0x6f, 0x6e, 0x76, 0x31, 0x64, 0x5f, 0x31, 0x5f, 0x32,
  0x2f, 0x53, 0x71, 0x75, 0x65, 0x65, 0x7a, 0x65, 0x3b, 0x68, 0x65, 0x61,
  0x74, 0x73, 0x65, 0x6e, 0x73, 0x65, 0x5f, 0x69, 0x6e, 0x66, 0x65, 0x72,
  0x5f, 0x31, 0x2f, 0x62, 0x61, 0x74, 0x63, 0x68, 0x5f, 0x6e, 0x6f, 0x72,
  0x6d, 0x61, 0x6c, 0x69, 0x7a, 0x61, 0x74, 0x69, 0x6f, 0x6e, 0x5f, 0x31,
  0x5f, 0x32, 0x2f, 0x62, 0x61, 0x74, 0x63, 0x68, 0x6e, 0x6f, 0x72, 0x6d,
  0x2f, 0x6d, 0x75, 0x6c, 0x5f, 0x31, 0x3b, 0x68, 0x65, 0x61, 0x74, 0x73,
  0x65, 0x6e, 0x73, 0x65, 0x5f, 0x69, 0x6e, 0x66, 0x65, 0x72, 0x5f, 0x31,
  0x2f, 0x73, 0x65, 0x70, 0x61, 0x72, 0x61, 0x62, 0x6c, 0x65, 0x5f, 0x63,
  0x6f, 0x6e, 0x76, 0x31, 0x64, 0x5f, 0x31, 0x5f, 0x32, 0x2f, 0x52, 0x65,
  0x6c, 0x75, 0x3b, 0x68, 0x65, 0x61, 0x74, 0x73, 0x65, 0x6e, 0x73, 0x65,
  0x5f, 0x69, 0x6e, 0x66, 0x65, 0x72, 0x5f, 0x31, 0x2f, 0x73, 0x65, 0x70,
  0x61, 0x72, 0x61, 0x62, 0x6c, 0x65, 0x5f, 0x63, 0x6f, 0x6e, 0x76, 0x31,
  0x64, 0x5f, 0x31, 0x5f, 0x32, 0x2f, 0x42, 0x69, 0x61, 0x73, 0x41, 0x64,
  0x64, 0x3b, 0x68, 0x65, 0x61, 0x74, 0x73, 0x65, 0x6e, 0x73, 0x65, 0x5f,
  0x69, 0x6e, 0x66, 0x65, 0x72, 0x5f, 0x31, 0x2f, 0x73, 0x65, 0x70, 0x61,
  0x72, 0x61, 0x62, 0x6c, 0x65, 0x5f, 0x63, 0x6f, 0x6e, 0x76, 0x31, 0x64,
  0x5f, 0x31, 0x5f, 0x32, 0x2f, 0x53, 0x71, 0x75, 0x65, 0x65, 0x7a, 0x65,
  0x5f, 0x31, 0x3b, 0x68, 0x65, 0x61, 0x74, 0x73, 0x65, 0x6e, 0x73, 0x65,
  0x5f, 0x69, 0x6e, 0x66, 0x65, 0x72, 0x5f, 0x31, 0x2f, 0x62, 0x61, 0x74,
  0x63, 0x68, 0x5f, 0x6e, 0x6f, 0x72, 0x6d, 0x61, 0x6c, 0x69, 0x7a, 0x61,
  0x74, 0x69, 0x6f, 0x6e, 0x5f, 0x31, 0x5f, 0x32, 0x2f, 0x62, 0x61, 0x74,
  0x63, 0x68, 0x6e, 0x6f, 0x72, 0x6d, 0x2f, 0x6d, 0x75, 0x6c, 0x3b, 0x68,
  0x65, 0x61, 0x74, 0x73, 0x65, 0x6e, 0x73, 0x65, 0x5f, 0x69, 0x6e, 0x66,
  0x65, 0x72, 0x5f, 0x31, 0x2f, 0x62, 0x61, 0x74, 0x63, 0x68, 0x5f, 0x6e,
  0x6f, 0x72, 0x6d, 0x61, 0x6c, 0x69, 0x7a, 0x61, 0x74, 0x69, 0x6f, 0x6e,
  0x5f, 0x31, 0x5f, 0x32, 0x2f, 0x62, 0x61, 0x74, 0x63, 0x68, 0x6e, 0x6f,
  0x72, 0x6d, 0x2f, 0x73, 0x75, 0x62, 0x00, 0x00, 0x04, 0x00, 0x00, 0x00,
  0x01, 0x00, 0x00, 0x00, 0x01, 0x00, 0x00, 0x00, 0x1e, 0x00, 0x00, 0x00,
  0x40, 0x00, 0x00, 0x00, 0xe2, 0xd3, 0xff, 0xff, 0x00, 0x00, 0x00, 0x01,
  0x14, 0x00, 0x00, 0x00, 0x34, 0x00, 0x00, 0x00, 0x27, 0x00, 0x00, 0x00,
  0x00, 0x00, 0x00, 0x09, 0x5c, 0x01, 0x00, 0x00, 0xcc, 0xd3, 0xff, 0xff,
  0x08, 0x00, 0x00, 0x00, 0x14, 0x00, 0x00, 0x00, 0x01, 0x00, 0x00, 0x00,
  0x99, 0xff, 0xff, 0xff, 0xff, 0xff, 0xff, 0xff, 0x00, 0x00, 0x00, 0x00,
  0x01, 0x00, 0x00, 0x00, 0xe3, 0xdd, 0x69, 0x3d, 0x2c, 0x01, 0x00, 0x00,
  0x68, 0x65, 0x61, 0x74, 0x73, 0x65, 0x6e, 0x73, 0x65, 0x5f, 0x69, 0x6e,
  0x66, 0x65, 0x72, 0x5f, 0x31, 0x2f, 0x62, 0x61, 0x74, 0x63, 0x68, 0x5f,
  0x6e, 0x6f, 0x72, 0x6d, 0x61, 0x6c, 0x69, 0x7a, 0x61, 0x74, 0x69, 0x6f,
  0x6e, 0x5f, 0x31, 0x5f, 0x32, 0x2f, 0x62, 0x61, 0x74, 0x63, 0x68, 0x6e,
  0x6f, 0x72, 0x6d, 0x2f, 0x6d, 0x75, 0x6c, 0x5f, 0x31, 0x3b, 0x68, 0x65,
  0x61, 0x74, 0x73, 0x65, 0x6e, 0x73, 0x65, 0x5f, 0x69, 0x6e, 0x66, 0x65,
  0x72, 0x5f, 0x31, 0x2f, 0x73, 0x65, 0x70, 0x61, 0x72, 0x61, 0x62, 0x6c,
  0x65, 0x5f, 0x63, 0x6f, 0x6e, 0x76, 0x31, 0x64, 0x5f, 0x31, 0x5f, 0x32,
  0x2f, 0x53, 0x71, 0x75, 0x65, 0x65, 0x7a, 0x65, 0x3b, 0x68, 0x65, 0x61,
  0x74, 0x73, 0x65, 0x6e, 0x73, 0x65, 0x5f, 0x69, 0x6e, 0x66, 0x65, 0x72,
  0x5f, 0x31, 0x2f, 0x73, 0x65, 0x70, 0x61, 0x72, 0x61, 0x62, 0x6c, 0x65,
  0x5f, 0x63, 0x6f, 0x6e, 0x76, 0x31, 0x64, 0x5f, 0x31, 0x5f, 0x32, 0x2f,
  0x52, 0x65, 0x6c, 0x75, 0x3b, 0x68, 0x65, 0x61, 0x74, 0x73, 0x65, 0x6e,
  0x73, 0x65, 0x5f, 0x69, 0x6e, 0x66, 0x65, 0x72, 0x5f, 0x31, 0x2f, 0x73,
  0x65, 0x70, 0x61, 0x72, 0x61, 0x62, 0x6c, 0x65, 0x5f, 0x63, 0x6f, 0x6e,
  0x76, 0x31, 0x64, 0x5f, 0x31, 0x5f, 0x32, 0x2f, 0x42, 0x69, 0x61, 0x73,
  0x41, 0x64, 0x64, 0x3b, 0x68, 0x65, 0x61, 0x74, 0x73, 0x65, 0x6e, 0x73,
  0x65, 0x5f, 0x69, 0x6e, 0x66, 0x65, 0x72, 0x5f, 0x31, 0x2f, 0x73, 0x65,
  0x70, 0x61, 0x72, 0x61, 0x62, 0x6c, 0x65, 0x5f, 0x63, 0x6f, 0x6e, 0x76,
  0x31, 0x64, 0x5f, 0x31, 0x5f, 0x32, 0x2f, 0x53, 0x71, 0x75, 0x65, 0x65,
  0x7a, 0x65, 0x5f, 0x31, 0x3b, 0x68, 0x65, 0x61, 0x74, 0x73, 0x65, 0x6e,
  0x73, 0x65, 0x5f, 0x69, 0x6e, 0x66, 0x65, 0x72, 0x5f, 0x31, 0x2f, 0x62,
  0x61, 0x74, 0x63, 0x68, 0x5f, 0x6e, 0x6f, 0x72, 0x6d, 0x61, 0x6c, 0x69,
  0x7a, 0x61, 0x74, 0x69, 0x6f, 0x6e, 0x5f, 0x31, 0x5f, 0x32, 0x2f, 0x62,
  0x61, 0x74, 0x63, 0x68, 0x6e, 0x6f, 0x72, 0x6d, 0x2f, 0x6d, 0x75, 0x6c,
  0x00, 0x00, 0x00, 0x00, 0x04, 0x00, 0x00, 0x00, 0x01, 0x00, 0x00, 0x00,
  0x01, 0x00, 0x00, 0x00, 0x1e, 0x00, 0x00, 0x00, 0x40, 0x00, 0x00, 0x00,
  0x6a, 0xd5, 0xff, 0xff, 0x00, 0x00, 0x00, 0x01, 0x14, 0x00, 0x00, 0x00,
  0x30, 0x00, 0x00, 0x00, 0x26, 0x00, 0x00, 0x00, 0x00, 0x00, 0x00, 0x09,
  0x1c, 0x01, 0x00, 0x00, 0x54, 0xd5, 0xff, 0xff, 0x08, 0x00, 0x00, 0x00,
  0x10, 0x00, 0x00, 0x00, 0x01, 0x00, 0x00, 0x00, 0x80, 0xff, 0xff, 0xff,
  0xff, 0xff, 0xff, 0xff, 0x01, 0x00, 0x00, 0x00, 0x70, 0xd5, 0x52, 0x3d,
  0xf2, 0x00, 0x00, 0x00, 0x68, 0x65, 0x61, 0x74, 0x73, 0x65, 0x6e, 0x73,
  0x65, 0x5f, 0x69, 0x6e, 0x66, 0x65, 0x72, 0x5f, 0x31, 0x2f, 0x73, 0x65,
  0x70, 0x61, 0x72, 0x61, 0x62, 0x6c, 0x65, 0x5f, 0x63, 0x6f, 0x6e, 0x76,
  0x31, 0x64, 0x5f, 0x31, 0x5f, 0x32, 0x2f, 0x52, 0x65, 0x6c, 0x75, 0x3b,
  0x68, 0x65, 0x61, 0x74, 0x73, 0x65, 0x6e, 0x73, 0x65, 0x5f, 0x69, 0x6e,
  0x66, 0x65, 0x72, 0x5f, 0x31, 0x2f, 0x73, 0x65, 0x70, 0x61, 0x72, 0x61,
  0x62, 0x6c, 0x65, 0x5f, 0x63, 0x6f, 0x6e, 0x76, 0x31, 0x64, 0x5f, 0x31,
  0x5f, 0x32, 0x2f, 0x42, 0x69, 0x61, 0x73, 0x41, 0x64, 0x64, 0x3b, 0x68,
  0x65, 0x61, 0x74, 0x73, 0x65, 0x6e, 0x73, 0x65, 0x5f, 0x69, 0x6e, 0x66,
  0x65, 0x72, 0x5f, 0x31, 0x2f, 0x73, 0x65, 0x70, 0x61, 0x72, 0x61, 0x62,
  0x6c, 0x65, 0x5f, 0x63, 0x6f, 0x6e, 0x76, 0x31, 0x64, 0x5f, 0x31, 0x5f,
  0x32, 0x2f, 0x53, 0x71, 0x75, 0x65, 0x65, 0x7a, 0x65, 0x3b, 0x68, 0x65,
  0x61, 0x74, 0x73, 0x65, 0x6e, 0x73, 0x65, 0x5f, 0x69, 0x6e, 0x66, 0x65,
  0x72, 0x5f, 0x31, 0x2f, 0x73, 0x65, 0x70, 0x61, 0x72, 0x61, 0x62, 0x6c,
  0x65, 0x5f, 0x63, 0x6f, 0x6e, 0x76, 0x31, 0x64, 0x5f, 0x31, 0x5f, 0x32,
  0x2f, 0x53, 0x71, 0x75, 0x65, 0x65, 0x7a, 0x65, 0x5f, 0x31, 0x3b, 0x68,
  0x65, 0x61, 0x74, 0x73, 0x65, 0x6e, 0x73, 0x65, 0x5f, 0x69, 0x6e, 0x66,
  0x65, 0x72, 0x5f, 0x31, 0x2f, 0x73, 0x65, 0x70, 0x61, 0x72, 0x61, 0x62,
  0x6c, 0x65, 0x5f, 0x63, 0x6f, 0x6e, 0x76, 0x31, 0x64, 0x5f, 0x31, 0x5f,
  0x32, 0x2f, 0x73, 0x65, 0x70, 0x61, 0x72, 0x61, 0x62, 0x6c, 0x65, 0x5f,
  0x63, 0x6f, 0x6e, 0x76, 0x32, 0x64, 0x00, 0x00, 0x04, 0x00, 0x00, 0x00,
  0x01, 0x00, 0x00, 0x00, 0x01, 0x00, 0x00, 0x00, 0x1e, 0x00, 0x00, 0x00,
  0x40, 0x00, 0x00, 0x00, 0xb2, 0xd6, 0xff, 0xff, 0x00, 0x00, 0x00, 0x01,
  0x14, 0x00, 0x00, 0x00, 0x30, 0x00, 0x00, 0x00, 0x25, 0x00, 0x00, 0x00,
  0x00, 0x00, 0x00, 0x09, 0x6c, 0x00, 0x00, 0x00, 0x9c, 0xd6, 0xff, 0xff,
  0x08, 0x00, 0x00, 0x00, 0x10, 0x00, 0x00, 0x00, 0x01, 0x00, 0x00, 0x00,
  0x0a, 0x00, 0x00, 0x00, 0x00, 0x00, 0x00, 0x00, 0x01, 0x00, 0x00, 0x00,
  0xad, 0xc9, 0x8e, 0x3c, 0x41, 0x00, 0x00, 0x00, 0x68, 0x65, 0x61, 0x74,
  0x73, 0x65, 0x6e, 0x73, 0x65, 0x5f, 0x69, 0x6e, 0x66, 0x65, 0x72, 0x5f,
  0x31, 0x2f, 0x73, 0x65, 0x70, 0x61, 0x72, 0x61, 0x62, 0x6c, 0x65, 0x5f,
  0x63, 0x6f, 0x6e, 0x76, 0x31, 0x64, 0x5f, 0x31, 0x5f, 0x32, 0x2f, 0x73,
  0x65, 0x70, 0x61, 0x72, 0x61, 0x62, 0x6c, 0x65, 0x5f, 0x63, 0x6f, 0x6e,
  0x76, 0x32, 0x64, 0x2f, 0x64, 0x65, 0x70, 0x74, 0x68, 0x77, 0x69, 0x73,
  0x65, 0x00, 0x00, 0x00, 0x04, 0x00, 0x00, 0x00, 0x01, 0x00, 0x00, 0x00,
  0x01, 0x00, 0x00, 0x00, 0x1e, 0x00, 0x00, 0x00, 0x20, 0x00, 0x00, 0x00,
  0x4a, 0xd7, 0xff, 0xff, 0x00, 0x00, 0x00, 0x01, 0x14, 0x00, 0x00, 0x00,
  0x30, 0x00, 0x00, 0x00, 0x24, 0x00, 0x00, 0x00, 0x00, 0x00, 0x00, 0x09,
  0x5c, 0x00, 0x00, 0x00, 0x34, 0xd7, 0xff, 0xff, 0x08, 0x00, 0x00, 0x00,
  0x10, 0x00, 0x00, 0x00, 0x01, 0x00, 0x00, 0x00, 0x99, 0xff, 0xff, 0xff,
  0xff, 0xff, 0xff, 0xff, 0x01, 0x00, 0x00, 0x00, 0x1f, 0x30, 0x32, 0x3d,
  0x31, 0x00, 0x00, 0x00, 0x68, 0x65, 0x61, 0x74, 0x73, 0x65, 0x6e, 0x73,
  0x65, 0x5f, 0x69, 0x6e, 0x66, 0x65, 0x72, 0x5f, 0x31, 0x2f, 0x73, 0x65,
  0x70, 0x61, 0x72, 0x61, 0x62, 0x6c, 0x65, 0x5f, 0x63, 0x6f, 0x6e, 0x76,
  0x31, 0x64, 0x5f, 0x31, 0x5f, 0x32, 0x2f, 0x45, 0x78, 0x70, 0x61, 0x6e,
  0x64, 0x44, 0x69, 0x6d, 0x73, 0x00, 0x00, 0x00, 0x04, 0x00, 0x00, 0x00,
  0x01, 0x00, 0x00, 0x00, 0x01, 0x00, 0x00, 0x00, 0x20, 0x00, 0x00, 0x00,
  0x20, 0x00, 0x00, 0x00, 0xd2, 0xd7, 0xff, 0xff, 0x00, 0x00, 0x00, 0x01,
  0x14, 0x00, 0x00, 0x00, 0x34, 0x00, 0x00, 0x00, 0x23, 0x00, 0x00, 0x00,
  0x00, 0x00, 0x00, 0x09, 0x58, 0x00, 0x00, 0x00, 0xbc, 0xd7, 0xff, 0xff,
  0x08, 0x00, 0x00, 0x00, 0x14, 0x00, 0x00, 0x00, 0x01, 0x00, 0x00, 0x00,
  0x99, 0xff, 0xff, 0xff, 0xff, 0xff, 0xff, 0xff, 0x00, 0x00, 0x00, 0x00,
  0x01, 0x00, 0x00, 0x00, 0x1f, 0x30, 0x32, 0x3d, 0x28, 0x00, 0x00, 0x00,
  0x68, 0x65, 0x61, 0x74, 0x73, 0x65, 0x6e, 0x73, 0x65, 0x5f, 0x69, 0x6e,
  0x66, 0x65, 0x72, 0x5f, 0x31, 0x2f, 0x7a, 0x65, 0x72, 0x6f, 0x5f, 0x70,
  0x61, 0x64, 0x64, 0x69, 0x6e, 0x67, 0x31, 0x64, 0x5f, 0x31, 0x5f, 0x32,
  0x2f, 0x50, 0x61, 0x64, 0x00, 0x00, 0x00, 0x00, 0x03, 0x00, 0x00, 0x00,
  0x01, 0x00, 0x00, 0x00, 0x20, 0x00, 0x00, 0x00, 0x20, 0x00, 0x00, 0x00,
  0x52, 0xd8, 0xff, 0xff, 0x00, 0x00, 0x00, 0x01, 0x14, 0x00, 0x00, 0x00,
  0x30, 0x00, 0x00, 0x00, 0x22, 0x00, 0x00, 0x00, 0x00, 0x00, 0x00, 0x09,
  0xc4, 0x00, 0x00, 0x00, 0x3c, 0xd8, 0xff, 0xff, 0x08, 0x00, 0x00, 0x00,
  0x10, 0x00, 0x00, 0x00, 0x01, 0x00, 0x00, 0x00, 0xf8, 0xff, 0xff, 0xff,
  0xff, 0xff, 0xff, 0xff, 0x01, 0x00, 0x00, 0x00, 0x2d, 0x58, 0x65, 0x3d,
  0x9b, 0x00, 0x00, 0x00, 0x68, 0x65, 0x61, 0x74, 0x73, 0x65, 0x6e, 0x73,
  0x65, 0x5f, 0x69, 0x6e, 0x66, 0x65, 0x72, 0x5f, 0x31, 0x2f, 0x63, 0x6f,
  0x6e, 0x76, 0x31, 0x64, 0x5f, 0x31, 0x2f, 0x42, 0x69, 0x61, 0x73, 0x41,
  0x64, 0x64, 0x3b, 0x68, 0x65, 0x61, 0x74, 0x73, 0x65, 0x6e, 0x73, 0x65,
  0x5f, 0x69, 0x6e, 0x66, 0x65, 0x72, 0x5f, 0x31, 0x2f, 0x63, 0x6f, 0x6e,
  0x76, 0x31, 0x64, 0x5f, 0x31, 0x2f, 0x63, 0x6f, 0x6e, 0x76, 0x6f, 0x6c,
  0x75, 0x74, 0x69, 0x6f, 0x6e, 0x2f, 0x53, 0x71, 0x75, 0x65, 0x65, 0x7a,
  0x65, 0x3b, 0x68, 0x65, 0x61, 0x74, 0x73, 0x65, 0x6e, 0x73, 0x65, 0x5f,
  0x69, 0x6e, 0x66, 0x65, 0x72, 0x5f, 0x31, 0x2f, 0x63, 0x6f, 0x6e, 0x76,
  0x31, 0x64, 0x5f, 0x31, 0x2f, 0x53, 0x71, 0x75, 0x65, 0x65, 0x7a, 0x65,
  0x3b, 0x68, 0x65, 0x61, 0x74, 0x73, 0x65, 0x6e, 0x73, 0x65, 0x5f, 0x69,
  0x6e, 0x66, 0x65, 0x72, 0x5f, 0x31, 0x2f, 0x63, 0x6f, 0x6e, 0x76, 0x31,
  0x64, 0x5f, 0x31, 0x2f, 0x63, 0x6f, 0x6e, 0x76, 0x6f, 0x6c, 0x75, 0x74,
  0x69, 0x6f, 0x6e, 0x00, 0x04, 0x00, 0x00, 0x00, 0x01, 0x00, 0x00, 0x00,
  0x01, 0x00, 0x00, 0x00, 0x1e, 0x00, 0x00, 0x00, 0x40, 0x00, 0x00, 0x00,
  0x42, 0xd9, 0xff, 0xff, 0x00, 0x00, 0x00, 0x01, 0x14, 0x00, 0x00, 0x00,
  0x30, 0x00, 0x00, 0x00, 0x21, 0x00, 0x00, 0x00, 0x00, 0x00, 0x00, 0x09,
  0xb8, 0x01, 0x00, 0x00, 0x2c, 0xd9, 0xff, 0xff, 0x08, 0x00, 0x00, 0x00,
  0x10, 0x00, 0x00, 0x00, 0x01, 0x00, 0x00, 0x00, 0x99, 0xff, 0xff, 0xff,
  0xff, 0xff, 0xff, 0xff, 0x01, 0x00, 0x00, 0x00, 0x1f, 0x30, 0x32, 0x3d,
  0x8f, 0x01, 0x00, 0x00, 0x68, 0x65, 0x61, 0x74, 0x73, 0x65, 0x6e, 0x73,
  0x65, 0x5f, 0x69, 0x6e, 0x66, 0x65, 0x72, 0x5f, 0x31, 0x2f, 0x62, 0x61,
  0x74, 0x63, 0x68, 0x5f, 0x6e, 0x6f, 0x72, 0x6d, 0x61, 0x6c, 0x69, 0x7a,
  0x61, 0x74, 0x69, 0x6f, 0x6e, 0x5f, 0x31, 0x2f, 0x62, 0x61, 0x74, 0x63,
  0x68, 0x6e, 0x6f, 0x72, 0x6d, 0x2f, 0x61, 0x64, 0x64, 0x5f, 0x31, 0x3b,
  0x68, 0x65, 0x61, 0x74, 0x73, 0x65, 0x6e, 0x73, 0x65, 0x5f, 0x69, 0x6e,
  0x66, 0x65, 0x72, 0x5f, 0x31, 0x2f, 0x73, 0x65, 0x70, 0x61, 0x72, 0x61,
  0x62, 0x6c, 0x65, 0x5f, 0x63, 0x6f, 0x6e, 0x76, 0x31, 0x64, 0x5f, 0x31,
  0x2f, 0x53, 0x71, 0x75, 0x65, 0x65, 0x7a, 0x65, 0x3b, 0x68, 0x65, 0x61,
  0x74, 0x73, 0x65, 0x6e, 0x73, 0x65, 0x5f, 0x69, 0x6e, 0x66, 0x65, 0x72,
  0x5f, 0x31, 0x2f, 0x62, 0x61, 0x74, 0x63, 0x68, 0x5f, 0x6e, 0x6f, 0x72,
  0x6d, 0x61, 0x6c, 0x69, 0x7a, 0x61, 0x74, 0x69, 0x6f, 0x6e, 0x5f, 0x31,
  0x2f, 0x62, 0x61, 0x74, 0x63, 0x68, 0x6e, 0x6f, 0x72, 0x6d, 0x2f, 0x6d,
  0x75, 0x6c, 0x5f, 0x31, 0x3b, 0x68, 0x65, 0x61, 0x74, 0x73, 0x65, 0x6e,
  0x73, 0x65, 0x5f, 0x69, 0x6e, 0x66, 0x65, 0x72, 0x5f, 0x31, 0x2f, 0x73,
  0x65, 0x70, 0x61, 0x72, 0x61, 0x62, 0x6c, 0x65, 0x5f, 0x63, 0x6f, 0x6e,
  0x76, 0x31, 0x64, 0x5f, 0x31, 0x2f, 0x52, 0x65, 0x6c, 0x75, 0x3b, 0x68,
  0x65, 0x61, 0x74, 0x73, 0x65, 0x6e, 0x73, 0x65, 0x5f, 0x69, 0x6e, 0x66,
  0x65, 0x72, 0x5f, 0x31, 0x2f, 0x73, 0x65, 0x70, 0x61, 0x72, 0x61, 0x62,
  0x6c, 0x65, 0x5f, 0x63, 0x6f, 0x6e, 0x76, 0x31, 0x64, 0x5f, 0x31, 0x2f,
  0x42, 0x69, 0x61, 0x73, 0x41, 0x64, 0x64, 0x3b, 0x68, 0x65, 0x61, 0x74,
  0x73, 0x65, 0x6e, 0x73, 0x65, 0x5f, 0x69, 0x6e, 0x66, 0x65, 0x72, 0x5f,
  0x31, 0x2f, 0x73, 0x65, 0x70, 0x61, 0x72, 0x61, 0x62, 0x6c, 0x65, 0x5f,
  0x63, 0x6f, 0x6e, 0x76, 0x31, 0x64, 0x5f, 0x31, 0x2f, 0x53, 0x71, 0x75,
  0x65, 0x65, 0x7a, 0x65, 0x5f, 0x31, 0x3b, 0x68, 0x65, 0x61, 0x74, 0x73,
  0x65, 0x6e, 0x73, 0x65, 0x5f, 0x69, 0x6e, 0x66, 0x65, 0x72, 0x5f, 0x31,
  0x2f, 0x62, 0x61, 0x74, 0x63, 0x68, 0x5f, 0x6e, 0x6f, 0x72, 0x6d, 0x61,
  0x6c, 0x69, 0x7a, 0x61, 0x74, 0x69, 0x6f, 0x6e, 0x5f, 0x31, 0x2f, 0x62,
  0x61, 0x74, 0x63, 0x68, 0x6e, 0x6f, 0x72, 0x6d, 0x2f, 0x6d, 0x75, 0x6c,
  0x3b, 0x68, 0x65, 0x61, 0x74, 0x73, 0x65, 0x6e, 0x73, 0x65, 0x5f, 0x69,
  0x6e, 0x66, 0x65, 0x72, 0x5f, 0x31, 0x2f, 0x62, 0x61, 0x74, 0x63, 0x68,
  0x5f, 0x6e, 0x6f, 0x72, 0x6d, 0x61, 0x6c, 0x69, 0x7a, 0x61, 0x74, 0x69,
  0x6f, 0x6e, 0x5f, 0x31, 0x2f, 0x62, 0x61, 0x74, 0x63, 0x68, 0x6e, 0x6f,
  0x72, 0x6d, 0x2f, 0x73, 0x75, 0x62, 0x31, 0x00, 0x03, 0x00, 0x00, 0x00,
  0x01, 0x00, 0x00, 0x00, 0x1e, 0x00, 0x00, 0x00, 0x20, 0x00, 0x00, 0x00,
  0x22, 0xdb, 0xff, 0xff, 0x00, 0x00, 0x00, 0x01, 0x14, 0x00, 0x00, 0x00,
  0x34, 0x00, 0x00, 0x00, 0x20, 0x00, 0x00, 0x00, 0x00, 0x00, 0x00, 0x09,
  0xbc, 0x01, 0x00, 0x00, 0x0c, 0xdb, 0xff, 0xff, 0x08, 0x00, 0x00, 0x00,
  0x14, 0x00, 0x00, 0x00, 0x01, 0x00, 0x00, 0x00, 0x99, 0xff, 0xff, 0xff,
  0xff, 0xff, 0xff, 0xff, 0x00, 0x00, 0x00, 0x00, 0x01, 0x00, 0x00, 0x00,
  0x1f, 0x30, 0x32, 0x3d, 0x8e, 0x01, 0x00, 0x00, 0x68, 0x65, 0x61, 0x74,
  0x73, 0x65, 0x6e, 0x73, 0x65, 0x5f, 0x69, 0x6e, 0x66, 0x65, 0x72, 0x5f,
  0x31, 0x2f, 0x62, 0x61, 0x74, 0x63, 0x68, 0x5f, 0x6e, 0x6f, 0x72, 0x6d,
  0x61, 0x6c, 0x69, 0x7a, 0x61, 0x74, 0x69, 0x6f, 0x6e, 0x5f, 0x31, 0x2f,
  0x62, 0x61, 0x74, 0x63, 0x68, 0x6e, 0x6f, 0x72, 0x6d, 0x2f, 0x61, 0x64,
  0x64, 0x5f, 0x31, 0x3b, 0x68, 0x65, 0x61, 0x74, 0x73, 0x65, 0x6e, 0x73,
  0x65, 0x5f, 0x69, 0x6e, 0x66, 0x65, 0x72, 0x5f, 0x31, 0x2f, 0x73, 0x65,
  0x70, 0x61, 0x72, 0x61, 0x62, 0x6c, 0x65, 0x5f, 0x63, 0x6f, 0x6e, 0x76,
  0x31, 0x64, 0x5f, 0x31, 0x2f, 0x53, 0x71, 0x75, 0x65, 0x65, 0x7a, 0x65,
  0x3b, 0x68, 0x65, 0x61, 0x74, 0x73, 0x65, 0x6e, 0x73, 0x65, 0x5f, 0x69,
  0x6e, 0x66, 0x65, 0x72, 0x5f, 0x31, 0x2f, 0x62, 0x61, 0x74, 0x63, 0x68,
  0x5f, 0x6e, 0x6f, 0x72, 0x6d, 0x61, 0x6c, 0x69, 0x7a, 0x61, 0x74, 0x69,
  0x6f, 0x6e, 0x5f, 0x31, 0x2f, 0x62, 0x61, 0x74, 0x63, 0x68, 0x6e, 0x6f,
  0x72, 0x6d, 0x2f, 0x6d, 0x75, 0x6c, 0x5f, 0x31, 0x3b, 0x68, 0x65, 0x61,
  0x74, 0x73, 0x65, 0x6e, 0x73, 0x65, 0x5f, 0x69, 0x6e, 0x66, 0x65, 0x72,
  0x5f, 0x31, 0x2f, 0x73, 0x65, 0x70, 0x61, 0x72, 0x61, 0x62, 0x6c, 0x65,
  0x5f, 0x63, 0x6f, 0x6e, 0x76, 0x31, 0x64, 0x5f, 0x31, 0x2f, 0x52, 0x65,
  0x6c, 0x75, 0x3b, 0x68, 0x65, 0x61, 0x74, 0x73, 0x65, 0x6e, 0x73, 0x65,
  0x5f, 0x69, 0x6e, 0x66, 0x65, 0x72, 0x5f, 0x31, 0x2f, 0x73, 0x65, 0x70,
  0x61, 0x72, 0x61, 0x62, 0x6c, 0x65, 0x5f, 0x63, 0x6f, 0x6e, 0x76, 0x31,
  0x64, 0x5f, 0x31, 0x2f, 0x42, 0x69, 0x61, 0x73, 0x41, 0x64, 0x64, 0x3b,
  0x68, 0x65, 0x61, 0x74, 0x73, 0x65, 0x6e, 0x73, 0x65, 0x5f, 0x69, 0x6e,
  0x66, 0x65, 0x72, 0x5f, 0x31, 0x2f, 0x73, 0x65, 0x70, 0x61, 0x72, 0x61,
  0x62, 0x6c, 0x65, 0x5f, 0x63, 0x6f, 0x6e, 0x76, 0x31, 0x64, 0x5f, 0x31,
  0x2f, 0x53, 0x71, 0x75, 0x65, 0x65, 0x7a, 0x65, 0x5f, 0x31, 0x3b, 0x68,
  0x65, 0x61, 0x74, 0x73, 0x65, 0x6e, 0x73, 0x65, 0x5f, 0x69, 0x6e, 0x66,
  0x65, 0x72, 0x5f, 0x31, 0x2f, 0x62, 0x61, 0x74, 0x63, 0x68, 0x5f, 0x6e,
  0x6f, 0x72, 0x6d, 0x61, 0x6c, 0x69, 0x7a, 0x61, 0x74, 0x69, 0x6f, 0x6e,
  0x5f, 0x31, 0x2f, 0x62, 0x61, 0x74, 0x63, 0x68, 0x6e, 0x6f, 0x72, 0x6d,
  0x2f, 0x6d, 0x75, 0x6c, 0x3b, 0x68, 0x65, 0x61, 0x74, 0x73, 0x65, 0x6e,
  0x73, 0x65, 0x5f, 0x69, 0x6e, 0x66, 0x65, 0x72, 0x5f, 0x31, 0x2f, 0x62,
  0x61, 0x74, 0x63, 0x68, 0x5f, 0x6e, 0x6f, 0x72, 0x6d, 0x61, 0x6c, 0x69,
  0x7a, 0x61, 0x74, 0x69, 0x6f, 0x6e, 0x5f, 0x31, 0x2f, 0x62, 0x61, 0x74,
  0x63, 0x68, 0x6e, 0x6f, 0x72, 0x6d, 0x2f, 0x73, 0x75, 0x62, 0x00, 0x00,
  0x04, 0x00, 0x00, 0x00, 0x01, 0x00, 0x00, 0x00, 0x01, 0x00, 0x00, 0x00,
  0x1e, 0x00, 0x00, 0x00, 0x20, 0x00, 0x00, 0x00, 0x0a, 0xdd, 0xff, 0xff,
  0x00, 0x00, 0x00, 0x01, 0x14, 0x00, 0x00, 0x00, 0x30, 0x00, 0x00, 0x00,
  0x1f, 0x00, 0x00, 0x00, 0x00, 0x00, 0x00, 0x09, 0x4c, 0x01, 0x00, 0x00,
  0xf4, 0xdc, 0xff, 0xff, 0x08, 0x00, 0x00, 0x00, 0x10, 0x00, 0x00, 0x00,
  0x01, 0x00, 0x00, 0x00, 0x98, 0xff, 0xff, 0xff, 0xff, 0xff, 0xff, 0xff,
  0x01, 0x00, 0x00, 0x00, 0xf3, 0x1f, 0x3a, 0x3d, 0x20, 0x01, 0x00, 0x00,
  0x68, 0x65, 0x61, 0x74, 0x73, 0x65, 0x6e, 0x73, 0x65, 0x5f, 0x69, 0x6e,
  0x66, 0x65, 0x72, 0x5f, 0x31, 0x2f, 0x62, 0x61, 0x74, 0x63, 0x68, 0x5f,
  0x6e, 0x6f, 0x72, 0x6d, 0x61, 0x6c, 0x69, 0x7a, 0x61, 0x74, 0x69, 0x6f,
  0x6e, 0x5f, 0x31, 0x2f, 0x62, 0x61, 0x74, 0x63, 0x68, 0x6e, 0x6f, 0x72,
  0x6d, 0x2f, 0x6d, 0x75, 0x6c, 0x5f, 0x31, 0x3b, 0x68, 0x65, 0x61, 0x74,
  0x73, 0x65, 0x6e, 0x73, 0x65, 0x5f, 0x69, 0x6e, 0x66, 0x65, 0x72, 0x5f,
  0x31, 0x2f, 0x73, 0x65, 0x70, 0x61, 0x72, 0x61, 0x62, 0x6c, 0x65, 0x5f,
  0x63, 0x6f, 0x6e, 0x76, 0x31, 0x64, 0x5f, 0x31, 0x2f, 0x53, 0x71, 0x75,
  0x65, 0x65, 0x7a, 0x65, 0x3b, 0x68, 0x65, 0x61, 0x74, 0x73, 0x65, 0x6e,
  0x73, 0x65, 0x5f, 0x69, 0x6e, 0x66, 0x65, 0x72, 0x5f, 0x31, 0x2f, 0x73,
  0x65, 0x70, 0x61, 0x72, 0x61, 0x62, 0x6c, 0x65, 0x5f, 0x63, 0x6f, 0x6e,
  0x76, 0x31, 0x64, 0x5f, 0x31, 0x2f, 0x52, 0x65, 0x6c, 0x75, 0x3b, 0x68,
  0x65, 0x61, 0x74, 0x73, 0x65, 0x6e, 0x73, 0x65, 0x5f, 0x69, 0x6e, 0x66,
  0x65, 0x72, 0x5f, 0x31, 0x2f, 0x73, 0x65, 0x70, 0x61, 0x72, 0x61, 0x62,
  0x6c, 0x65, 0x5f, 0x63, 0x6f, 0x6e, 0x76, 0x31, 0x64, 0x5f, 0x31, 0x2f,
  0x42, 0x69, 0x61, 0x73, 0x41, 0x64, 0x64, 0x3b, 0x68, 0x65, 0x61, 0x74,
  0x73, 0x65, 0x6e, 0x73, 0x65, 0x5f, 0x69, 0x6e, 0x66, 0x65, 0x72, 0x5f,
  0x31, 0x2f, 0x73, 0x65, 0x70, 0x61, 0x72, 0x61, 0x62, 0x6c, 0x65, 0x5f,
  0x63, 0x6f, 0x6e, 0x76, 0x31, 0x64, 0x5f, 0x31, 0x2f, 0x53, 0x71, 0x75,
  0x65, 0x65, 0x7a, 0x65, 0x5f, 0x31, 0x3b, 0x68, 0x65, 0x61, 0x74, 0x73,
  0x65, 0x6e, 0x73, 0x65, 0x5f, 0x69, 0x6e, 0x66, 0x65, 0x72, 0x5f, 0x31,
  0x2f, 0x62, 0x61, 0x74, 0x63, 0x68, 0x5f, 0x6e, 0x6f, 0x72, 0x6d, 0x61,
  0x6c, 0x69, 0x7a, 0x61, 0x74, 0x69, 0x6f, 0x6e, 0x5f, 0x31, 0x2f, 0x62,
  0x61, 0x74, 0x63, 0x68, 0x6e, 0x6f, 0x72, 0x6d, 0x2f, 0x6d, 0x75, 0x6c,
  0x00, 0x00, 0x00, 0x00, 0x04, 0x00, 0x00, 0x00, 0x01, 0x00, 0x00, 0x00,
  0x01, 0x00, 0x00, 0x00, 0x1e, 0x00, 0x00, 0x00, 0x20, 0x00, 0x00, 0x00,
  0x82, 0xde, 0xff, 0xff, 0x00, 0x00, 0x00, 0x01, 0x14, 0x00, 0x00, 0x00,
  0x30, 0x00, 0x00, 0x00, 0x1e, 0x00, 0x00, 0x00, 0x00, 0x00, 0x00, 0x09,
  0x14, 0x01, 0x00, 0x00, 0x6c, 0xde, 0xff, 0xff, 0x08, 0x00, 0x00, 0x00,
  0x10, 0x00, 0x00, 0x00, 0x01, 0x00, 0x00, 0x00, 0x80, 0xff, 0xff, 0xff,
  0xff, 0xff, 0xff, 0xff, 0x01, 0x00, 0x00, 0x00, 0xe3, 0xf7, 0x28, 0x3d,
  0xe8, 0x00, 0x00, 0x00, 0x68, 0x65, 0x61, 0x74, 0x73, 0x65, 0x6e, 0x73,
  0x65, 0x5f, 0x69, 0x6e, 0x66, 0x65, 0x72, 0x5f, 0x31, 0x2f, 0x73, 0x65,
  0x70, 0x61, 0x72, 0x61, 0x62, 0x6c, 0x65, 0x5f, 0x63, 0x6f, 0x6e, 0x76,
  0x31, 0x64, 0x5f, 0x31, 0x2f, 0x52, 0x65, 0x6c, 0x75, 0x3b, 0x68, 0x65,
  0x61, 0x74, 0x73, 0x65, 0x6e, 0x73, 0x65, 0x5f, 0x69, 0x6e, 0x66, 0x65,
  0x72, 0x5f, 0x31, 0x2f, 0x73, 0x65, 0x70, 0x61, 0x72, 0x61, 0x62, 0x6c,
  0x65, 0x5f, 0x63, 0x6f, 0x6e, 0x76, 0x31, 0x64, 0x5f, 0x31, 0x2f, 0x42,
  0x69, 0x61, 0x73, 0x41, 0x64, 0x64, 0x3b, 0x68, 0x65, 0x61, 0x74, 0x73,
  0x65, 0x6e, 0x73, 0x65, 0x5f, 0x69, 0x6e, 0x66, 0x65, 0x72, 0x5f, 0x31,
  0x2f, 0x73, 0x65, 0x70, 0x61, 0x72, 0x61, 0x62, 0x6c, 0x65, 0x5f, 0x63,
  0x6f, 0x6e, 0x76, 0x31, 0x64, 0x5f, 0x31, 0x2f, 0x53, 0x71, 0x75, 0x65,
  0x65, 0x7a, 0x65, 0x3b, 0x68, 0x65, 0x61, 0x74, 0x73, 0x65, 0x6e, 0x73,
  0x65, 0x5f, 0x69, 0x6e, 0x66, 0x65, 0x72, 0x5f, 0x31, 0x2f, 0x73, 0x65,
  0x70, 0x61, 0x72, 0x61, 0x62, 0x6c, 0x65, 0x5f, 0x63, 0x6f, 0x6e, 0x76,
  0x31, 0x64, 0x5f, 0x31, 0x2f, 0x53, 0x71, 0x75, 0x65, 0x65, 0x7a, 0x65,
  0x5f, 0x31, 0x3b, 0x68, 0x65, 0x61, 0x74, 0x73, 0x65, 0x6e, 0x73, 0x65,
  0x5f, 0x69, 0x6e, 0x66, 0x65, 0x72, 0x5f, 0x31, 0x2f, 0x73, 0x65, 0x70,
  0x61, 0x72, 0x61, 0x62, 0x6c, 0x65, 0x5f, 0x63, 0x6f, 0x6e, 0x76, 0x31,
  0x64, 0x5f, 0x31, 0x2f, 0x73, 0x65, 0x70, 0x61, 0x72, 0x61, 0x62, 0x6c,
  0x65, 0x5f, 0x63, 0x6f, 0x6e, 0x76, 0x32, 0x64, 0x00, 0x00, 0x00, 0x00,
  0x04, 0x00, 0x00, 0x00, 0x01, 0x00, 0x00, 0x00, 0x01, 0x00, 0x00, 0x00,
  0x1e, 0x00, 0x00, 0x00, 0x20, 0x00, 0x00, 0x00, 0xc2, 0xdf, 0xff, 0xff,
  0x00, 0x00, 0x00, 0x01, 0x14, 0x00, 0x00, 0x00, 0x34, 0x00, 0x00, 0x00,
  0x1d, 0x00, 0x00, 0x00, 0x00, 0x00, 0x00, 0x09, 0x6c, 0x00, 0x00, 0x00,
  0xac, 0xdf, 0xff, 0xff, 0x08, 0x00, 0x00, 0x00, 0x14, 0x00, 0x00, 0x00,
  0x01, 0x00, 0x00, 0x00, 0xd1, 0xff, 0xff, 0xff, 0xff, 0xff, 0xff, 0xff,
  0x00, 0x00, 0x00, 0x00, 0x01, 0x00, 0x00, 0x00, 0xb0, 0x01, 0x9e, 0x3c,
  0x3f, 0x00, 0x00, 0x00, 0x68, 0x65, 0x61, 0x74, 0x73, 0x65, 0x6e, 0x73,
  0x65, 0x5f, 0x69, 0x6e, 0x66, 0x65, 0x72, 0x5f, 0x31, 0x2f, 0x73, 0x65,
  0x70, 0x61, 0x72, 0x61, 0x62, 0x6c, 0x65, 0x5f, 0x63, 0x6f, 0x6e, 0x76,
  0x31, 0x64, 0x5f, 0x31, 0x2f, 0x73, 0x65, 0x70, 0x61, 0x72, 0x61, 0x62,
  0x6c, 0x65, 0x5f, 0x63, 0x6f, 0x6e, 0x76, 0x32, 0x64, 0x2f, 0x64, 0x65,
  0x70, 0x74, 0x68, 0x77, 0x69, 0x73, 0x65, 0x00, 0x04, 0x00, 0x00, 0x00,
  0x01, 0x00, 0x00, 0x00, 0x01, 0x00, 0x00, 0x00, 0x1e, 0x00, 0x00, 0x00,
  0x0e, 0x00, 0x00, 0x00, 0x5a, 0xe0, 0xff, 0xff, 0x00, 0x00, 0x00, 0x01,
  0x14, 0x00, 0x00, 0x00, 0x34, 0x00, 0x00, 0x00, 0x1c, 0x00, 0x00, 0x00,
  0x00, 0x00, 0x00, 0x09, 0x5c, 0x00, 0x00, 0x00, 0x44, 0xe0, 0xff, 0xff,
  0x08, 0x00, 0x00, 0x00, 0x14, 0x00, 0x00, 0x00, 0x01, 0x00, 0x00, 0x00,
  0x09, 0x00, 0x00, 0x00, 0x00, 0x00, 0x00, 0x00, 0x00, 0x00, 0x00, 0x00,
  0x01, 0x00, 0x00, 0x00, 0x0d, 0xd5, 0x3e, 0x3d, 0x2f, 0x00, 0x00, 0x00,
  0x68, 0x65, 0x61, 0x74, 0x73, 0x65, 0x6e, 0x73, 0x65, 0x5f, 0x69, 0x6e,
  0x66, 0x65, 0x72, 0x5f, 0x31, 0x2f, 0x73, 0x65, 0x70, 0x61, 0x72, 0x61,
  0x62, 0x6c, 0x65, 0x5f, 0x63, 0x6f, 0x6e, 0x76, 0x31, 0x64, 0x5f, 0x31,
  0x2f, 0x45, 0x78, 0x70, 0x61, 0x6e, 0x64, 0x44, 0x69, 0x6d, 0x73, 0x00,
  0x04, 0x00, 0x00, 0x00, 0x01, 0x00, 0x00, 0x00, 0x01, 0x00, 0x00, 0x00,
  0x22, 0x00, 0x00, 0x00, 0x0e, 0x00, 0x00, 0x00, 0xe2, 0xe0, 0xff, 0xff,
  0x00, 0x00, 0x00, 0x01, 0x14, 0x00, 0x00, 0x00, 0x34, 0x00, 0x00, 0x00,
  0x1b, 0x00, 0x00, 0x00, 0x00, 0x00, 0x00, 0x09, 0x54, 0x00, 0x00, 0x00,
  0xcc, 0xe0, 0xff, 0xff, 0x08, 0x00, 0x00, 0x00, 0x14, 0x00, 0x00, 0x00,
  0x01, 0x00, 0x00, 0x00, 0x09, 0x00, 0x00, 0x00, 0x00, 0x00, 0x00, 0x00,
  0x00, 0x00, 0x00, 0x00, 0x01, 0x00, 0x00, 0x00, 0x0d, 0xd5, 0x3e, 0x3d,
  0x26, 0x00, 0x00, 0x00, 0x68, 0x65, 0x61, 0x74, 0x73, 0x65, 0x6e, 0x73,
  0x65, 0x5f, 0x69, 0x6e, 0x66, 0x65, 0x72, 0x5f, 0x31, 0x2f, 0x7a, 0x65,
  0x72, 0x6f, 0x5f, 0x70, 0x61, 0x64, 0x64, 0x69, 0x6e, 0x67, 0x31, 0x64,
  0x5f, 0x31, 0x2f, 0x50, 0x61, 0x64, 0x00, 0x00, 0x03, 0x00, 0x00, 0x00,
  0x01, 0x00, 0x00, 0x00, 0x22, 0x00, 0x00, 0x00, 0x0e, 0x00, 0x00, 0x00,
  0x5e, 0xe1, 0xff, 0xff, 0x00, 0x00, 0x00, 0x01, 0x14, 0x00, 0x00, 0x00,
  0xd4, 0x00, 0x00, 0x00, 0x1a, 0x00, 0x00, 0x00, 0x00, 0x00, 0x00, 0x09,
  0xe0, 0x00, 0x00, 0x00, 0xc2, 0xf2, 0xff, 0xff, 0x03, 0x00, 0x00, 0x00,
  0x08, 0x00, 0x00, 0x00, 0x7c, 0x00, 0x00, 0x00, 0x0e, 0x00, 0x00, 0x00,
  0x00, 0x00, 0x00, 0x00, 0x00, 0x00, 0x00, 0x00, 0x00, 0x00, 0x00, 0x00,
  0x00, 0x00, 0x00, 0x00, 0x00, 0x00, 0x00, 0x00, 0x00, 0x00, 0x00, 0x00,
  0x00, 0x00, 0x00, 0x00, 0x00, 0x00, 0x00, 0x00, 0x00, 0x00, 0x00, 0x00,
  0x00, 0x00, 0x00, 0x00, 0x00, 0x00, 0x00, 0x00, 0x00, 0x00, 0x00, 0x00,
